node {
  name: "Train/TrainInput/raw_data"
  op: "Const"
  attr {
    key: "_output_shapes"
    value {
      list {
        shape {
          dim {
            size: 81000
          }
          dim {
            size: 1
          }
        }
      }
    }
  }
  attr {
    key: "dtype"
    value {
      type: DT_FLOAT
    }
  }
  attr {
    key: "value"
    value {
      tensor {
        dtype: DT_FLOAT
        tensor_shape {
          dim {
            size: 81000
          }
          dim {
            size: 1
          }
        }
        tensor_content: "\315\314\314=\354Q\270>\372\355k?\235\371\223>\234jR?\037\336\025?9\207x?h\036\350=\204\317\315>\006)v?xb\027>$\001\001?\367\373\177?x\"\2019S\032\201:\306\371\200;\320w\200< \350|=\203Jm>\300M6?n\354Q? \"\027?f\243w?\347j\001>Y\037\342>U\203|?\216 \\=\016LP>#\355%?a\206i?\356\003\244>\323\362^?7F\346>0j}?P\310#=\304;\035>-\027\005?Y\230\177?\367\372\316;E\254\315<Z\202\310=\334\340\264>\275\364i?\226*\241>\225\336\\?\036z\362>!I\177?`\\6<\303T4=Nd,>\222^\017? O|?&\320h=\207\224[>\252~,?\334\020a?\304\221\331>\027;z?\030t\264=\251\215\244>\203U_?`\373\343>\375\356|?\377\346A=\035\2718>uf\027?\270qw?HQ\004>\233p\346>\256r}?\266\263!=}Q\033>\213\302\003?t\307\177?\317\377a;L8a<\274\037^=\013\024R>\322\372&?PBh?qP\254>\261\244d?^w\303>\253\257q?&7X>\337\217*?\350\261c?Wg\311>>[t?\370\3221>\236\361\022?\207dz?\371\200\257=\306v\240>\336X\\?\017\200\365>\301\221\177?\236\036\334;\025\244\332<6\316\324=p\261\276>\003Wo?\3376y>\355\217<?\341\260F?,\3531?\205\020Y?\n\016\004?<\276\177?\315f\203;\350\337\202<\247\310\200=\374^q>\376y8?\234)N?z\212 ?[to?H\236w>\224\275;?F<H?*x.?aB^?zY\352>B+~?\373\261\350<\342\025\342=\216 \311>\371<t?\002\2133>\026\020\024?\356\265y?lP\304=\004\177\261>%\355g?\201z\256>@\nf?\243\236\272>_2m?\214`\213>\034\337J?\006i(?\014|f?S\307\267>\022\240k?f\006\226>L!T?\206h\021?\316C{?\303\270\224=\376\353\211>\215\211I?\020\201+?\217mb?\200?\321>Avw?\213\r\004>\032\014\346>u^}?\313\247&=\353\337\037>\360\351\006?\314@\177?\\\245><tm<=e\3023>\n4\024?O\237y?x\000\307=@\252\263>\372<i?f\347\245>\262J`?(?\336>\267\214{?U\357\213=\235_\202>\372YB?\3555;?f8I?&;,?una?\340X\327>Y\213y?B_\311=k\222\265>w\\j?bz\236>y\331Z?\364\022\376>J\374\177?\250bm9\346Tm:\344\035m;DBl<\033\332h=Z\235[>\264\203,?\332\ta?E\274\331>\323Gz?\343\356\262=\300L\243>\255n^?JT\351>\n\376}?M\367\376<\320\007\367=\316;\331>+!z?\341\213\267=\270\030\247>. a?\3134\331>\013\037z?\267\314\267=\355M\247>\027Ea?\220T\330>Q\332y?\245\374\277=F\375\255>A\272e?\n\234\274>\206Bn?\033\026\204>h\005D?\202\2647?\303\203O?\2475\035?4\253r?71J>\312D\"?\240\246m?}E\210>\022\001H?\227\375.?\212\177]?\257\320\356>\256\330~?n\376\222<4[\220=].\206>(\010F?\'^3?h\305V?\031[\n?\007S~?G\025\325<c\212\317=@\202\272>\371\"m?\232\311\213>\250>K?\351\210\'?\377\223g?\231\274\260>Uug?\000\203\261>\227\357g?\242j\256>#\000f? \337\272>CUm?Cr\212>#\005J?\037d*?\373\353c?\025\375\307>\271\276s?w\261:>\340\247\030?`\200v?uV\022>\215\331\372>z\345\177?\017\034\324:0\304\323;\326e\322<|\376\314=\252y\270>6\004l?\226c\223>\247\353Q?\036$\027?\366\241w?q\200\001>\210?\342>\324\212|?\311MZ=@\253N>=\365$?p\250j?\242\200\234>>TY?EQ\003?\372\323\177?x\370/;\202\177/<D\236-=OB&>\313C\013?j\004~?\234\323\373<\327\025\364=\243\376\326>\220ny?\201\311\314=HO\270>\200\354k?\224\003\224>\005sR?u\310\025?\377\225x? a\346=\313v\314>\013\240u?\034E\037>a\177\006? W\177?Vp(<\007\265&=\023\354\037>M\362\006?\374>\177?/r@<\201/>=\330Z5>s<\025?\034\364x?\256G\333=7\315\303>(\330q?e\367U>\376A)?/ge?]\253\276>\351So?\004by>\020\246<?\364\206F?\256G2?\261\177X?\334\237\005?v\201\177?-\226\374;\275\243\372<\233\370\362=<%\326>2(y?A\037\325=\240\361\276>\263wo?\264ow>\204\245;?(iH?\271\022.?\021\325^?\263\366\346>/\215}?\2454\033=\030S\025>F\031\377>0\377\177?\300\362O8\035\360O9\216\345O:Y\273O;\311\022O<\313tL=&@B>\323f\035?+~r?4\266L>{\311#?\'\375k?5\223\223>\007\024R?\250\274\026? \354w?\005T\372=\376\272\333>\205\334z?j\"\241=\341t\224>h\322R?!\322\024?\3719y?\252\004\323=\224F\275>\336\233n?t\255\201>\243\252A?\236\237<?*\223F?\301,2?\363\251X?\341*\005?0\225\177?\227F\325;:\343\323<7h\316=\273\232\271>v\244l?\226&\217>\013AN?4Q ?e\256o?\323tt>\031\031:?xBK?\361\177\'?\022\237g?\343t\260>\330Hg?j\242\262>\221\236h?>\366\251>q\025c?G3\315>d\353u?\344\357\032>\204~\003?)\317\177?\3154C;\363\237B<\030P@=\224H7>^z\026?\365\032x?\342\326\364=\227\221\327>P\235y?@=\307=7\333\263>#Zi?z\'\245>\013\303_?Mm\341>JY|?RXf=%dY>i=+?@\311b?i\n\317>\374\242v?\201U\020>\333\372\367>\256\277\177?v\204\200;m\003\200<\243\006|=\322\204l>\210\3435?\376\237R?vT\025?#\344x?t*\335=)H\305>/\210r?\337&L>`s#?\377\\l?<\013\221>\275\350O?\036:\034?\361\214s?!\201=>&o\032?\360\024u?\260=\'>M\355\013?\376\306}?o\004\r=\221)\010>\t\035\354>\206t~?|\213\304<M\324\277=}\334\255>;\245e?\244!\275>\230\210n?\2462\202>\322-B?_\221;?\257\216H?\267\275-?\004O_?\025\"\344>p\367|?\021\327?=\347\3326>\3503\026?&Lx?\257\020\357=\252(\323>E%x?5\241\363=\307\245\326>\372Qy?\357,\320=\316\003\273>\rim?\377\352\211>\242\210I?,\203+?\261jb?\"Q\321>\261|w?m\255\003>`}\345>5A}?u\320-=?p&>\316b\013?q\371}?<\235\000=\305&\371=7\327\332>/\233z?\033\367\250=s\006\233>\027,X?\243\206\006?\246U\177?\203\350)<p%(=]>!>}\332\007?K\t\177?\211\307u<\253\027r=\237\310c>E\0351?!OZ?\022\221\000?\267\376\177?\375i\2448\261f\2449~Y\244:\275$\244;?R\243<\260\020\240=\024\216\223>\256\017R?\315\307\026?3\344w?\243A\373=jn\334>\336\016{?\263\026\233=$X\217>\261lN?X\346\037?\236\031p?5\231n>\347\0007?t\272P?\300+\032?VLu?\'\022$>V\310\t?5\201~?\177G\276<\r\334\271=\024\376\250>\262mb?\247>\321>\362uw?,\022\004>\370\022\346>\331_}?\215P&=\304\217\037>\312\262\006?\207L\177?\213\3732<\000\0071=U`)>@\\\r?\0016}?\346\2150=\260\361(>)\022\r?\232T}?]\021)=\337\026\">\242n\010?\230\343~?\326\225\215<c#\213=u\257\201>\236\254A?\216\233<?\334\232F?\311\0332?\213\304X?\'\341\004?\303\240\177?!3\276;\201\030\275<\027\273\270=h\021\250>\366\313a?g\036\325>3\321x?\255f\337=+\010\307>\243Rs?m\312@>\\~\034?vPs?\313\351@>\351\221\034?\007?s?\002\345A><.\035?\370\261r?0\320I>\013\n\"?S\345m?O\227\206>\336kF?T\2032?\277!X?!\243\006?\312O\177?\276\274/<0\332-=&y&>\320h\013?M\367}?\006$\001=b#\372=>\226\333>\026\322z?\333b\242=\262\202\225>\376\263S?*\207\022?\333\242z?\363\013\250=\375A\232>\205\220W?\3201\010?e\363~?\202\300\205<u\221\203=^;v>\324\005;?@\221I?\\o+?\233\205b?}\253\320>\334?w?\0319\007>\217\273\352>\263;~?\325\226\340<\223n\332=\203\"\303>n\207q?\231rZ>\301\330+?\336\365a?\013\036\324>Pzx?E\243\351=\362\373\316>r\235v?\232\247\020>\266p\370>\332\306\177?\350ed;\"\232c<\267p`=`$T>O1(?7\302f?E\005\266>\014\237j?<\277\234>\330\204Y?t\311\002?\357\340\177?zl\370:\361\363\367;\240\023\366<R\257\356=\003\336\322>\t\013x?\355\264\366=\346\374\330>\016\016z?7\323\271=\331\366\250>\307hb?\346\\\321>\373\200w?]m\003>,\036\345>Z-}?\222\2532=b\340*>\260\\\016?\355\306|?\010\254K=c\213A>\205\366\034?\226\344r?\351\371F>\007P ?\225\257o?Idt>t\020:?)RK?\006[\'?\217\314g?\rN\257>M\220f?\214E\267>\227Vk?\004\364\227>C\266U?\3305\r?\363E}?i\247,=S`%>\377\252\n?\3078~?\211\007\342<\377\312\333=a4\304>\203\010r?\267FS>N\257\'?ydg?\372\357\261>;2h?/\271\254>\001\351d?\034\311\301>^\341p?z\240c>\372\0061?PqZ?\2070\000?\333\377\177?h0\0237\0230\0238\300.\0239v)\023:P\024\023;\320\277\022<So\021=^E\014>\303\034\362>\"?\177?\233L@<\317\n>=\21695>\362&\025?Y\002y?\356\230\331=Zz\302>\t7q?\342\345^>\002a.?\373c^?f\223\351>\'\t~?f~\371<-\345\361=\004S\325>\310\342x?iS\335=Eh\305>\345\226r?-TK>\206\364\"?\213\350l?\275W\215>\265\245L?\3044$?x\204k?\373\277\226>l\272T?\205\324\017?\240\025|?\310\302v=\031\345g>Ia3?_\300V?\275h\n?\231N~?hD\327<H\234\321=6(\274>W\005n?L\273\205>r\232E?\206M4?\250AU?Vm\016?p\277|?\"\177M=\324/C>[\373\035?[\364q?\354eT>\256W(?\356\221f?\027;\267>\245Pk?\343\033\230>\245\326U?\t\337\014?Ti}?E\376#=im\035>\2209\005?\316\222\177?~\007\332;\034\224\330<J\332\322=\357$\275>P\212n?\307&\202>&\"B?\177\251;?\276aH?\200#.?\345\274^?\345\205\347>\341\250}?Hi\024=\251\010\017>\374\033\366>-\236\177?\000\\\303;\3251\302<Y\227\275=>\n\254>\271vd?F\230\304>\0067r?(\257P>\342\'&?\213@i?\354\317\245>):`?\240\242\336>\313\246{?\201\311\210=TM\177>\213\246??n\262@?3\231>?\275\305B?\306U:?\026\324J?\317\202(?r[f?\003\230\270>\'\025l?)\361\222>\\\212Q?\234\034\030?~\352v?\314/\014>p\375\361>\270;\177?I\261C<\352ZA=G:8>R\025\027?\246\254w?\226\340\000>\177P\341>eR|?\322\004h=F\340Z>\227\027,?\210\237a?\276-\326>\372*y?\r\313\324=\357\256\276>\274Uo?\247Hy>\r\231<?\232\237F?Q\0212?\355\324X?\260\263\004?\222\247\177?\325\237\260;\035\254\257<\267\347\253=\313y\235>\371\024Z?\3764\001?,\372\177?Su\2729Yd\272:~ \272;\327\021\271<\201\343\264=j\351\244>\357\226_?\013u\342>9\227|?\337IW=\r\371K>\322W#?z{l?\252<\220>\0065O?\355\370\035?\241\366q?\206ET>\270D(?\321\251f?\350\241\266>4\371j?se\232>\260\254W?\261\344\007?\310\006\177?:Ex<!\202t=\234\351e>\253J2?\376zX?\330\254\005?+\177\177?\307\223\000<\355\"\377<\2700\367=\327Z\331>\215*z?Lm\266=Y-\246>\333{`?\001\027\335>H={?\276\201\225=\265\227\212>\201\'J?\216\024*?\377Td?\347k\305>\217\230r?]<K>+\346\"?7\370l?\010\355\214>\364EL?\221\031%?f~j?\251\230\235>\267,Z?\035\362\000?l\374\177?\207\367d9\272\352d:\216\267d;6\353c<\212\277`=\216jT>dZ(?\203\216f?\002Q\267>\031]k?X\310\227>\274\222U?\355\224\r?%\036}?\021c6=\001D.>\340\233\020?\224\260{?\364\232\207=\266@}>x\236>?p\273B?Ek:?\337\254J?i\336(?\367\346e?\204\177\273>~\253m?!$\210>\332\341G?\307C/?,\030]?k+\361>\017$\177?\3333[<\024EX=\311\331L>\325\336#??\345k?~4\224>?\234R? ^\025?\261\335x?N\355\335=\334\340\305>\340\315r?\363?H>\364\026!?L\344n?-p\177>\003\270??\252\217@?j\337>?\027<B?\327s;?\231\305H?\005A-?O\000`?$\376\337>\211\377{?\326\034|=I\230l>\001\3565?Z\216R?\376\201\025?\252\305x?\014\303\340=O\030\310>\240\312s?;\005:>U:\030?\013\324v?^}\r>\021\341\363>\026m\177?\330\225\022<\033F\021=\023\037\014>&\345\361>\r9\177?\027XF<f\361C=\313\221:>\300\223\030?\333\217v?\022q\021>\200\221\371>\242\326\177?\020\\%;@\361$<(H#=\331\305\034>k\305\004?\362\244\177?\310\333\265;g\331\264<S\333\260=\211\225\241>\245-]?r\256\360>W\025\177?|\321i<@{f=%\203Y>?O+?!\261b??\237\317>\223\333v?\201\r\r>\022?\363>X]\177?a@\"<\n\245 =\037X\032>\226\024\003?\013\332\177?<\274\027;Lb\027<8\374\025=?~\020>[5\370>K\303\177?\020\234r;$\266q<B%n=\256L`>\034+/?\222<]?}W\360>\322\n\177?wCt<4\237p=\206|b>\177d0?\243h[?\213\343\372>\340\345\177?\212\350\320:M\223\320;m?\317<0\001\312=t\024\266>\322\247j?\303\204\234>tWY?OH\003?\347\324\177?GG,;W\323+<\007\006*=G\367\">\316\007\t?\315\271~?\237I\242<\225\022\237=\222\267\222>>YQ?\236\231\030?X\213v?\352\263\021>.\361\371>M\333\177?\327\265\022;\303a\022<\364\022\021=\214\357\013>\027\240\361>_1\177?\225\372M<\247cK=4JA>\366\315\034?2\ts?\317\353D>T\r\037?\024\357p?\361\336b>X\2330?\203\025[?\232\275\374>`\365\177?\321\362):\234\326);\357e)<\220\245\'=\371\310 >\004\212\007?\246\034\177?\216\220b<\200n_=e>S>j\252\'?\211jg?\316\310\261>Q\032h?\332T\255>\351Me?tK\277>:\245o?\312\364t>\347[:?\351\310J?\360\234(?T:f?\300k\271>\227\212l?*\326\217>^\333N?[\326\036?<$q?\330\357_>\351\366.?X\211]?c\227\356>\360\320~?r\324\226<\205\r\224=\220Y\211>%\002I?\034\267,?.\302`?Rn\333>\264\306z?A\300\243=u\250\226>\022\247T?\275\007\020? \374{?%\360|=\213Qm>\205Q6?\007\346Q?\2042\027?\212\227w?G\034\002>0(\343>\025\300|?\372VM=\264\013C>\377\344\035?F\tr?\327;S>\352\250\'?elg?\311\274\261>\371\022h?\243\204\255>\275le?&\210\276>\353Ao?O\\z>4&=?\026\223E?\207]4?}\'U?\005\263\016?\271\237|?=8U=\323\036J>\2519\"?\211\262m?\330\363\207>\232\264G?L\251/?\231\201\\?\305\224\364>\234}\177?\215!\002<\365\030\001=\245\016\372=\221\206\333>\237\315z?\341\353\242=\365\365\225>\256\023T?P\214\021?B0{?\373\022\227=\016\356\213>\274_K?\021;\'?\315\363g?DO\256>\257\356e?YN\273>$\221m?\251\330\210>g\212H?m\307-?!A_?\312t\344>W\t}?4x;=\247\3432>O\243\023?h\371y?\020I\274=\243\371\252>\306\302c?4\376\310>:.t?-a4>\372\232\024?\254]y?\033\312\316=\336\350\271>X\317l?2\003\216>\330>M?\212\304\"?\322\034m?\220\363\213>\272dK?N/\'?6\002h?\242\361\255>\313\262e?y\313\274>v[n?-j\203>\204^C?\220\0259?\220\025M?\027(#?\016\260l?\334\327\216>\212\373M?\340\372 ?I\001o?-\336}>\364\355>?\203\037B?\361\256;?\225WH?z:.?\274\233^?\034J\350>\320\315}?hW\013=\350\231\006>\022\321\351>\346\023~?\3133\364<5\354\354=\251\203\321>\024\217w?\261\232\002>\245\344\343>\001\352|?@\036C=\316\3229>7\032\030?L\354v?\377\024\014>\202\326\361>o7\177?e\363G<\264\202E=\215\374;>\321y\031?\355\333u?\314\323\033>B\035\004?J\274\177?WG\207;^\270\206<2\201\204=\005\335w>\365\335;?\302\377G?\214\000/?2{]?\022\352\356>\025\334~?GO\221<o\273\216=\340\310\204>\374\261D?\332C6?8\375Q?!\367\026?_\302w?\0137\377=5i\337>\364\331{?\265\232\202=\013\215t>\300%:?}+K?\366\265\'?7\\g?T%\262>\272Rh?t\345\253>\221^d?\334/\305>\006}r?\226\306L>P\323#?\'\362k?q\335\223>\323RR?Y\033\026?\']x?2\021\355=\027\240\321>d\231w?\213\000\002>\317\376\342>\273\266|?\037\236O=\016\030E>\214(\037?\237\324p?GTd>\270j1?\344\327Y?\266\340\001?\345\361\177?\002\236a:Lla;\315\245`<C\221]=\001\225Q>\330\257&?L\235h?\214\376\251>\006\033c?\263\020\315>\246\335u?`\272\033>\222\013\004?\214\276\177?8\307\202;\232A\202<e/\200=\356Rp>\010\3547?\354\"O?\265%\036?\220\314q?\\\234V>\351\241)?\363\352d?\323\274\301>d\333p?\302\364c>\30351?\200)Z?.\373\000?&\374\177?hpv9\225av:M&v;\2379u<\002\216q=7Oc>\322\3310?`\266Z?\025\332\376>\257\376\177?\324\270\2508Z\265\2509t\247\250:\346o\250;@\222\247<\277$\244=\334\374\226>l\354T?\373O\017?\037V|?\\\035g=\374\022Z>\347\241+?\331@b?NR\322>y\331w?\014\203\374=\304`\335>QQ{?L\030\223=\256\207\210>\354>H?0r.?\017K^?V&\352>\221\"~?A\372\354<O\037\346=\306C\314>v\213u?\234s >nO\007?=*\177?/\020U<\337JR=\360~G>J\241 ?\037]o?\316\341x><d<?r\003G?[41?\251+Z?\026\365\000?U\374\177?Y\240j9\350\222j:,]j;\235\206i<\2042f=\227BY>\032*+?R\343b?]i\316>\375dv?\356\353\023>v\033\375>\242\367\177?c\336\005:\343\314\005;\365\206\005<_p\004=\035(\000>)<\340>\374\016|?\271^x=?Oi>\351&4?\256\200U?.\305\r?\206\t}?\274l;=<\3312>\210\234\023?\221\375y?G\312\273=\"\222\252>\334}c?R\253\312>\324\343t?\323\013*>\346\316\r?V\005}?\205r<=\376\3063>\0067\024?m\235y?\3029\307=g\330\263>wXi?\2002\245>\335\312_?z>\341>\022N|?\244\021i=\222\316[>\315\237,?\267\342`?o\251\332>\335\215z?]\217\252=\006[\234>\3746Y?\344\242\003?\034\313\177?\005dS;w\265R<\276\377O=\305oE>w^\037?\361\237p?\224:g>\343\0033?\317UW?D\322\010?\274\310~?\234\344\232<\335\366\227=8\260\214>:\017L?\323\233%?X\346i?\343\211\241>\014%]?\200\340\360>K\033\177?\213\350c<\362\274`=?hT>\nY(?7\220f?\025F\267>\345Vk?\372\361\227>\232\264U?I:\r?\035D}?X\032-=\216\311%>2\362\n?\274 ~?x\341\355<\036\371\346=\213\354\314>>\317u?\231\216\034>\023\237\004?\222\252\177?_\242\252;\347\276\251<z:\246=}\274\230>\233XV?d\201\013?\200\356}?9N\003=N1\376=\222\244\336>M\247{?\327\271\210=02\177>\357\230??}\315@?rb>?\2530C?\365u9?\niL?\334\305$?\005\337j?k\024\233>\0337X?Gh\006?\311[\177?\345\315#<\246*\"=\006\277\033>\316\016\004?#\276\177?i\230\203;\036\021\203<J\370\200=E\262q>\374\2458?\330\333M?\016H!?a\261n?\260\030\201>|\027A?D\314=?\023TD?\351\0147?\314\245P?\323_\032?\225!u?\230\204&>\212p\013?\213\364}?\270\321\001=\317h\373=\371\213\334>\022\027{?c\032\232=\352\201\216>s\257M?\363\263!?t@n?b$\204>9\023D? \2277?\333\266O?\210\266\034?A\036s?\347\274C>\222R\036?-\242q?\340\366X>~\376*?\007\036c?\031\376\314>>\326u?\203\'\034>wW\004?\232\264\177?|\240\226;;\357\225<\2700\223=\230\234\210>oRH?\034F.?\353\212^?~\255\350>\022\340}?\220\332\006=\370i\002>\n\234\343>\373\331|?\311\006G=\020[=>*W\032?\267(u?&\034&>\005*\013?s\r~?3a\367<\315\350\357==\316\323>\333^x?\353\335\354=\256x\321>\027\213w?Q\326\002>s=\344>b\375|?tc>=\367\2115>\337Z\025?\335\337x?\247\253\335=m\255\305>{\266r?\214\217I>\335\342!?\350\016n?\177y\205>\207[E?#\3264?;aT?0\300\020?\247\235{?\025\344\211=X\233\200>\371\232@?\226\310>?\351hB?\364\026;?\245qI?\365\267+?\276\"b?\017\013\323>\343\032x?\020\331\364=@\223\327>\326\235y?T-\307=d\316\263>\202Ri?\271Y\245>\252\346_?\361\227\340>\242%|?b\341r=szd>\335\1771?6\267Y?f<\002?\001\354\177?\300\356\237:\313\274\237;s\365\236<\324\337\233=\272\002\220>c\002O?\034v\036?l\200q?\t\326Z>\273\021,?\233\247a?y\374\325>\330\032y?\256\263\326=\2211\300>\277\030p?i\245n>j\0077?@\257P?\377G\032?05u?ue%>y\256\n?\2377~?\340\231\342<@U\334=\354\240\304>\t;r?\341uP>\360\005&?\362hi?\362\305\244>\255}_?\340\013\343>\260\271|?\254\345N=ErD>z\302\036?_7q?#\341^>S^.?\335g^?{|\351>\"\005~?ey\373<+\301\363=\"\276\326>\326Yy?\214>\317=\305E\272>\025\002m?\323\251\214>v\tL?\206\251%?<\326i?{\364\241>\212s]?\317\026\357>\005\342~?\216]\216<.\344\213=\374U\202>\207PB?\204I;? \024I?\022\216,?l\373`?\277\023\332>\333az?\263\322\257={\272\240>U\213\\?{\\\364>\212x\177?/.\007<\250\020\006=Q\255\001>\222\202\342>X\232|?\211\207V=\033KK>\016\357\"?\204\356l?\025/\215>D\201L?\371\213$?V!k?\356X\231>p\326V?\344,\n?\331a~?M\304\315<-\231\310=7\363\264>\201\377i?G\343\240>\253\251\\?\342\254\363>\032h\177?\240\213\027<\310$\026=\326\243\020>Pk\370>\210\306\177?l\254e;^\336d<\352\253a=\360<U>S\325(?\222\362e?\2315\273>\331\203m?\2513\211>\374\336H?@\007-?\316Q`?\\\024\336>g\201{?\270L\215=\005\215\203>i\200C?#\3168?\253\224M?\352\364!?\305\373m?\023\375\205>6\331E?\301\3043?\017 V?\310\031\014?K\266}?N\036\021=\031\372\013>l\257\361>\0263\177?\222EL<\226\271I=G\312?>i\336\033?R\335s?\216\3668>\270\215\027?\352Tw?$\377\005>\274\354\350>\210\353}?\r\t\004=\360\216\377=-\253\337>\257\352{?\216\224\200=\343\003q>\317I8?\201~N?\253\272\037?\nEp?E8l>R\2725?J\345R?=\241\024?\243Yy?\203D\317=\207J\272>\254\004m?)\230\214>\213\371K?V\317%?\245\251i?1\033\243>\277J^?/(\352>\342\"~?|\322\354<\326\371\345=\270&\314>\265\177u?M !>\344\305\007?R\016\177?\202\311p<\230?m=\253\201_>\341\270.?\'\344]?\203\203\354>I\204~?\370\301\274<\214h\270=\275\315\247>h\235a?\261:\326>5/y?\360J\324=jI\276>\306!o?$\033|>\307\t>?\014\335C?3\n8?%\356N?\020\250\036?\270Pq?Gz]>1\223-?\261\213_?2\270\342>\247\246|?a\210S=\277\233H>\321N!?X\252n?[I\201>\263GA?\014j=?(\021E?\374v5?\021VS?P|\023??\021z?\321q\271=\033\247\250>u2b?\241\252\322>\340\370w?\267\325\370=\336\231\332>Q\211z?\227\032\253=\006\317\234>\025\221Y?5\247\002?\330\343\177?R(\341:O\305\340;\233:\337<b%\331=U\037\302>)\013q?QRa>\336\275/?\357b\\?\357E\365>\357\214\177?\260\271\345;e\035\344<B\303\335=\353\277\305>\347\276r?\305\026I>\224\231!?.\\n?7e\203>\260YC?\273\0379?l\003M?\304S#?\364\177l?U\036\220>\206\032O?y:\036?\371\270q?\346\262W>gC*?A\027d?\226\356\306>>Gs?\256nA>\252\344\034?\273\364r?\376\021F>\010\302\037?\274=p?\317\236l>\203\3615?p\210R?>\221\025?f\273x?\356\370\341=\375\t\311>J3t?\245\0274>Uk\024?7|y?\363*\313=O\003\267>\3430k?\311\360\230>\301\202V?\217\017\013?\243\026~?\250\332\362<\227\247\353=\364\211\320>q3w?)\362\007>\254\313\353>\310g~?n\326\312<\266\320\305=Y\265\262>\002\252h?l\253\251>\020\343b?\361j\316>\231ev?\343\342\023>\231\016\375>W\367\177?4\217\n:t|\n;\2121\n<$\007\t=\232q\004>\207\240\346>7|}?\223]\037==*\031>\\A\002?\250\353\177?\017\267\242:Y\203\242;\004\265\241<\332\203\236=\371>\222>\017\362P?G\237\031?\004\276u?7\214\035>\345N\005?K\217\177?\325\006\341;;{\337<{b\331=xO\302>e\"q?\336\t`>\215\005/?\331s]?\377\024\357>\310\341~?\346{\216<y\001\214=Eo\202>XiB?\016\026;?OsI?#\264+?\366\'b?\014\353\322>\240\017x?\026+\366=<\224\330>\375\355y?9\245\275=\215\025\254>#~d?\267i\304>b!r?\004\344Q>}\336&?\306dh?\276o\253>\003\021d?\243\025\307>\241Xs?\021t@>~H\034?@\200s?d8>>s\342\032?\341\264t?F\271,>\347\226\017?\3403|?#mo=Sna>\214\315/?\207K\\?\010\315\365>\372\227\177?\210\266\317;ve\316<;2\311==n\265>hGj?L\006\237>\306C[?\373\265\373>\232\355\177?\303!\223:{\367\222;\275N\222<\315\261\217=\312\234\205>J}E?\344\2144?\330\331T?E\201\017?c>|?F\340l=b-_>\\\211.?e)^?\227\354\352>\317C~?\007\227\334<g\246\326=\023\'\300>\204\023p?\265\356n>\207.7?\346kP?\214\361\032?.\250t?xr->~\021\020?<\367{?O\037~=-[n>\303\3376?Y\363P?\005\234\031?\240\300u?\321e\035>O4\005?\251\223\177?^R\330;\307\344\326<\255A\321=#\340\273>\017\337m?X\302\206>\250\224F?v)2?\034\257X?\224\034\005?|\227\177?H\262\320;\004^\317<:\036\312=\303+\266>F\265j?\021+\234>\236\021Y?\374\n\004?\237\276\177?|\241\202;+\034\202<&\013\200=\202\023p>]\3127?\261]O?+\224\035?bTr?\320\013O>\311.%?\305ej?\201<\236>D\252Z?\266\036\377>:\377\177?\376AF8\230?F9\0006F:\242\017F;fvE<(\025C=\224\3129>\372\024\030?>\360v?X\332\013>E\201\361>\345-\177?\305nQ<m\301N=\257QD>c\256\036?\250Jq?%\320]>\343\303-?2F_?\240V\344>\326\002}?\327\016==\350T4>\010\223\024?\312by?\354.\316=\373l\271>E\213l?\223\321\217>X\327N?D\340\036?\256\032q?\367v`>\335B/?\206\031]?\223#\361>&#\177?6\033\\<;&Y=\036\243M>tW$?&]k?\006\310\227>y\222U?\241\225\r?\331\035}?\250u6=\360T.>\013\247\020?\306\252{?qN\210=\005x~>m;??\313\206A?\030\351<?\242\007F?L_3?\221\303V?\025`\n?iQ~?G\341\325<\301K\320=[\034\273>Fvm?\215\220\211>\0225I?\303B,?\356ca?\365\230\327>\243\237y?\212\366\306=@\242\263>48i?\311\006\246>\305``?>\272\335>ei{?\2431\220=\247\n\206>\'\346E?\201\2503?\267MV?\306\236\013?\342\343}?\232\352\005=\301\211\001>rM\342>\017\216|?\224\204Y=t\367M>\344\211$?\266#k?\004I\231>\255\311V?\205O\n?\304V~?\361<\323<\205\312\315=\306\034\271>\362^l?\002\376\220>F\335O?\276V\034?\244ss?h\356>>\270T\033?\025Tt?\031;2>\2125\023?\t<z?\'W\264=\321u\244>xD_?\345`\344>\r\005}?6\204<=\016\3273>rA\024?\326\226y?\032\002\310=\261y\264>\007\270i?.\274\242>\250\005^?\305\276\353>\276e~?-\330\313<\251\305\306=\335z\263>\256 i?g\241\246>\027\315`?T,\333>\311\263z?\320\004\246=\211\217\230>N4V?B\343\013?\272\312}?i\031\014=\255N\007>P\333\352>\366@~?\276\376\335<\257\372\327=\3163\301>u\230p?\354\243g>\235=3?\223\371V?y\315\t?\242\177~?;\016\277<\211\231\272=\032\231\251>\264\326b?Q\267\316>\030\203v?\'.\022>\367\237\372>\034\343\177?\344\010\347:\244\240\346;\032\001\345<B\232\336=Eh\306>\025\013s?\256\320D>\241\374\036?D\377p?\\\372a>\331\0330?.\326[?Ap\370>\323\306\177?\177\201d;\210\265c<Z\213`=\030<T>2?(?\303\260f?Vu\266>\240\337j?a\020\233>\3543X?\rq\006?\006Z\177?\231\216%<U\342#=\265S\035>\303\'\005?\261\225\177?\nF\324;\001\346\322<\020x\315=\340\332\270>c:l?{\365\221>\365\262P?\247>\032?\333<u?\027\365$>[b\n?\255P~?a>\326<\376\243\320=\242b\273>\005\234m?$\216\210>\363DH?\223d.?\317^^?\350\261\351>|\016~?\203\336\366<\000n\357=.p\323>?>x?\274\262\360=\310h\324>\332\223x?\311\241\346=\346\250\314>.\264u?\363\034\036>\003\263\005?\023~\177?L\253\001<\223\244\000=\2074\371=\240\341\332>5\236z?\204\232\250=\037\271\232>\377\356W?\277.\007?\2441\177?y\265M<I K=\205\rA>,\250\034?\037+s?\253\003C>\005\340\035?\353\rr?\235\371R>\377\201\'?\212\234g?L\205\260>\nSg?\231`\262>\271vh?\230\372\252>i\303c??\372\310>\207,t?\334y4>\366\252\024?]Sy?\324\002\320=A\342\272>\364Vm?\271f\212>\211\372I?\242|*?x\313c?\374\307\310>\342\026t?\024\2645>\013v\025?\257\315x?\326\320\337=&[\307>wws?:\267>>\0332\033?\222qt?\021\2160>(\035\022?\214\337z?_\305\240=u&\224>m\220R?\244|\025?B\311x?~V\340=\217\303\307>\200\245s?=\036<>!\217\031?\356\312u?\035\316\034>\'\313\004?\026\244\177?W\221\267;\025\212\266<\320x\262=I\353\242>\361\'^?%\365\352>8E~?M\345\333<<\376\325=\033\242\277>\353\320o?\236\222r><\0349?\250\tM?\302D#?\202\220l?\t\256\217>-\270N?\377,\037?I\320p?l\221d>\225\2141?\207\243Y?\220s\002?\366\347\177?D;\300:\030\363\277;>\323\276<Ma\272=\033k\251>\240\267b?/w\317>i\314v?\306\356\r>\032\205\364>5|\177?\346\206\003<\231x\002=[\241\374=\231w\335>|W{? Z\222=\303\344\207>t\246G?\376\310/?SR\\?\315\245\365>\324\224\177?\316\375\325;\r\230\324<\254\023\317=\222#\272>o\357l?\325(\215>\251{L?`\231$?\005\022k?v\277\231>\202(W?\306M\t?\302\245~?\3414\254<)\226\250={\265\232>\035\354W?\2516\007?\334/\177?}zO<\340\331L= \233B>B\237\035? Jr?\\\236O>\375\205%?\373\377i?$\340\240>W\247\\?a\272\363>fi\177?HA\026<\206\340\024=@w\017>H\273\366>\031\252\177?*\225\253;)\257\252<\300 \247=H}\231>\223\363V?\307\335\t?\240z~?\026\210\301<\242\365\274=l\206\253>\375\037d?\361\267\306>\325.s?>\316B>\357\276\035?\276,r?\366AQ>\305~&?{\330h?&{\250>o\024b?\314b\323>\2269x?\327>\361=\353\323\324>)\270x?\225Z\342=\023V\311>\337St?!>2>\2047\023?\331:z?h{\264=\257\223\244>\321Y_?\275\341\343>^\351|?\026FC=\330\3669>,1\030?\371\332v?l\026\r>\375K\363>\241^\177?(\371 <Gd\037=k0\031>\261E\002?Y\353\177?D*\245:\374\364\244;g \244<\232\326\240=\3744\224>\251\234R?\016]\025?g\336x?\301\327\335=\372\317\305>4\306r?\002\256H>\353Y!?\307\236n?U\231\201>\306\226A?Z\310<?\343EF?\322\3262?\207\235W?6\016\010?o\374~?\271D\201<\014u~=E\246n>\340\0077?w\256P?\374I\032?\2163u?a}%>\252\276\n?32~?\006F\345<T\333\336=/\233\306>\363!s?\255\207C>\2561\036?F\301q?\345<W>\017\377)?<qd?\272\272\304>\377Fr?\020\313O>\217\240%?\310\340i?\265\256\241>3@]?TB\360>9\010\177?\325\326v<\316\036s=\226\260d>\325\2351?\315\210Y?b\276\002?\344\341\177?\220\307\360:UV\360;\021\223\356<c\240\347=\010n\315>\250\002v?\325\230\031>\322\216\002?\324\345\177?\205I\321:\371\363\320;\336\236\317<\314[\312=,]\266>\273\321j?(m\233>\363|X?q\247\005? \200\177?\236?\377;\236B\375<8n\365=\264\004\330>x\301y?K\361\302=\370b\260>\265=g?O\352\262>\361\311h?d\332\250>jUb?\360\323\321>#\254w??\350\000>\366[\341>$U|?\031Zg=\335HZ>\322\300+?\241\026b?VU\323>\3444x?\357\313\361=\273?\325>Y\334x?\333\025\336=\236\000\306>G\334r?-qG>\344\230 ?\257eo?\235jx>\356&<?\352vG?L30?\345\262[?\244:\371>(\322\177?\033A7;\355\2756<#\2644=F\273,>:\230\017?;3|?9\225o=\271\221a>[\341/?\351-\\?\300w\366>#\245\177?\224y\265;Ix\264<~~\260=\271H\241>\345\364\\?\214\370\361>/;\177?\2319D<\370\337A=\301\2628>db\027?\261tw?\350$\004>\306.\346>xe}?:\360$=\360K\036>{\323\005?:x\177?\004~\007<+_\006=\257\366\001>\031\360\342>e\263|?.nP=\372\322E>b\233\037?\000dp?\214\205j>r\3174?GlT?\016\243\020?\331\254{?L\016\210=\313\010~>n\003???\365A?,\006<?m\264G?\263\251/?\000\201\\?9\230\364>\353}\177?\r\323\001<\263\313\000=\333}\371=\031\031\333>?\256z?\262\256\246=\321\035\231>\373\246V?\212\255\n?\3567~?\222r\342<\0360\334=\306\203\304>\201-r?\r7Q>Qx&?=\340h?OH\250>\242\361a?\3717\324>1\203x?\315\227\350=^-\316>\261Mv?\233D\025>\277\004\377>\t\377\177?o\230v8\271\224v9\341\205v:\207Jv;\224]u<\343\260q=\373mc>\354\3520??\234Z?!n\377>\255\377\177?\233<\2467\303;\2468d8\2469\346*\246:\370\364\245;\315\035\245<\321\311\241=\342\001\225>\223HS?p\237\023?\310\373y?\237\000\274=\202\276\252>q\233c?@\363\311>\236\226t?\177r.>\211\272\020?\234\240{?\263\210\211=@L\200>*L@?Rg??\357/A?~\232=?\n\264D?p?6?\263\004R?\364\343\026?\034\320w?\217\233\375=\3643\336>\302\211{?\244J\214=m\256\202><\247B?_\225:?\347_J?\252\221)?\023\000e?\2127\301>J\232p?)\212g>\201/3?\'\020W?\022\220\t?7\222~?L\337\265<\240\325\261=}d\242>\244\305]?p6\355>\t\237~?)\210\257<N\305\253=(]\235>\353\376Y?\013s\001?\231\367\177?\202m\006:\335[\006;X\025\006<o\374\004=\032\253\000>n\000\341>\033?|?\250\263l=\354\005_>\030s.?\277I^?\024.\352>\343#~?\260S\354<]\202\345=\r\312\313>\nZu?4I#>\240?\t?\334\251~?\217-\252<\213\244\246=Q\025\231>&\240V?\n\300\n?\2751~?_\200\345<h\022\337=F\306\306>>5s?\363qB>\271\205\035?\271ar?$MN>\025\275$?\032\351j?\020\321\232>\356\001X?\262\372\006?)=\177?\rCB<g\365?=e\3666>\224E\026?\337?x?\347\201\360=mC\324>\034\207x?\333!\350=/\322\315>\022*v?\010S\027>E\366\000?L\374\177?f\344l9\263\326l:\354\237l;5\305k<\246`h=\2611[>-F,?5_a?\266\265\327>\263\250y?\355\342\305=\014\304\262>\341\262h?aq\251>\336\273b?\004]\317>z\302v?@\202\016> Z\365>\237\216\177?\211]\342;7\315\340<\370\241\332=\360J\303>\241\232q?\016bY>6<+?\337\312b?b\000\317>%\237v?j\216\020>\221L\370>\262\304\177?T\000m;\352$l<\232\275h=\027\204[>Fu,?\351\035a?\217B\331>6#z?nM\267=u\345\246>\210\374`?\005\r\332>\335_z?\263\017\260=\000\355\240>\345\260\\?\013\203\363>\014d\177?\366\224\033<\277\032\032=|N\024>\214\247\375>\200\372\177?-\010\2609\013\371\257:\220\274\257;I\313\256<\202\020\253=\240\306\234>\223\212Y?l\271\002?P\342\177?\374c\355:\352\365\354;>?\353<\324}\344=\310\377\312>\351\006u?\356\n(>Xw\014?a\222}?~\356\031=\217%\024>em\375>b\371\177?\332\306\3239\364\260\323:nY\323;u\374\321<\203\232\314=\257)\270>l\327k?\265\221\224>\236\352R?p\223\024?\206by?\3416\316=Us\271>\305\216l?\320\271\217>\203\302N?\221\023\037?\005\351p?s4c>\357\3120?\026\315Z?BY\376>F\375\177?\257\203.9@|.:\204^.;\300\347-<3\017,=\355\324$>\215L\n?\271W~?&\304\322<\363W\315=4\301\270>\033,l?\013V\222>\325\005Q?=m\031?\356\345u?a@\033>\240\266\003?\330\310\177?\273p\\;\351\262[<\272\300X=^HM>\037!$?\254\232k?\267*\226>X?T?z\031\021?mn{?w\226\217=H\205\205>\316fE?\256\2754?\223\211T?\267U\020?\262\324{?\215=\203=\026\251u>\321\271:?\031\035J?\251,*?D5d?\3012\306>\365\362r?n+F>\240\321\037?>.p?\026xm>2f6?\351\302Q?R\214\027?\362Uw?\307\357\005>\014\326\350>o\347}?\014\013\005=\304\270\000>\344\024\341>\rD|?6\200k=\354\365]>J\331-?\216\'_?\367\014\345>\273)}?\017\2163=\020\257+>:\346\016?\n\210|?d\373Z=RFO>\237Q%?8=j?\367I\237>\370v[?\245\221\372>\201\342\177?\334\335\353:3q\353;!\300\351<\247\024\343=\362\346\311>l\221t?;\276.>r\354\020?^\206{?n\263\214=\326\010\203>\241\377B?\307\3349?\305\257K?)~&?7\331h?Wv\250>%\021b?\362v\323>\232@x?\356k\360=\2352\324>\\\201x?\020\317\350=\021X\316>H^v?(O\024>\201\250\375>\204\372\177?\331x\2579\321i\257:\270-\257;\371=\256<6\211\252=\346U\234>\3762Y?\004\256\003?\327\311\177?\016xX;\003\301W<\254\351T=n\330I>\t\017\"?\003\340m?\316\273\206>w\216F?\03772?\260\231X?\352W\005?\313\215\177?\264\004\344;\203n\342<I,\334=\304\200\304>\033,r?\002KQ>\036\204&?\013\322h?T\245\250>?1b?\023\262\322>\203\373w?\245\206\370=\000^\332>\306wz?\3643\255=\014\216\236>r\350Z?\345\275\375>\347\372\177?v,\2439v\037\243:}\353\242; \034\242<\343\346\236=\251\222\222>\2659Q?\272\351\030?_Mv?QI\025>k\013\377>\026\377\177?\356\253i8\231\250i9E\233i:\372ei;/\221h<\021De=\344nX>\020\260*?\007\207c?Ir\312>\004\314t?\240g+>\271\266\016?\005\236|?X\242U=\340}J>\'s\"?\327tm?Y\232\211>\">I?\006.,?\227\200a?h\352\326>\024hy?f\216\315=\272\354\270>NDl?a\262\221>4yP?\032\320\032?G\304t?\232\330+>\324\001\017?${|?c\036^=\327\022R>\035\372&?,Ch?\322J\254>\004\241d?~\216\303>\231\272q?\324\233W>\r6*?\341(d?K\200\306>\342\025s?S5D>\347\234\036?g[q?\345\342\\>5=-?\264\005`?\312\335\337>n\367{?N\023~=\251Pn>$\3326?\373\374P?\244\203\031?\031\324u?\024G\034>gm\004?\230\261\177?\327\237\234;0\340\233<\346\350\230=:~\215>)\310L?+\342#?\201\341k?\273M\224>~\261R?A\'\025?%\002y?\025\237\331=2\177\302>]9q?\360\304^>fN.?\356~^?U\364\350>\347\354}?\333\262\003=\245\355\376=\0272\337>\340\313{?\206N\204=\310\204w>h\260;?\331TH?\246@.?\320\222^?\331~\350>\212\327}?w\363\010=>_\004>N\205\346>\316v}?\326\260 =\375b\032>.\034\003?O\331\177?P\253\032;\335M\032<\326\331\030=\240%\023>\"\001\374>\t\360\177?\017_\177:_\037\177;\037!~<\t0z=\353\347j>\270\0045?/\024T?\377\212\021?\3730{?\262\374\226=\017\333\213>\200NK?\244c\'?\365\301g?\314\222\257>\221\273f?\370/\266>\263\267j?\343\032\234>\376\004Y?\034.\004?\033\272\177?d\243\213;\017\013\213<\347\256\210=:\037\177>l\217??c\340@?(<>?:{C?\022\3318?A\201M?\367#\"?\266\311m?\343T\207>#\037G?\334\3660?\375\211Z?{\325\377>\371\377\177?\010\371\3415\357\370\3416\214\370\3417\375\366\3418\301\360\3419\324\327\341:5t\341;\033\347\337<w\310\331=\310\237\302>\001Iq?\202\347]> \321-?@3_?b\307\344>\002\033}??\'7=\255\366.>\235\021\021?\240r{?\336\024\217=\323\025\205>\367\373D?\263\2445?\220\tS?0C\024?\273\225y?\254#\310=\264\224\264>\364\307i?\353R\242>\312\270]?\277\201\355>\001\252~?A\033\252<\377\222\246=\240\006\231>U\224V?\004\340\n?\356&~?\253\323\352<m\030\344=\375\260\312>0\346t?T\351)>\333\267\r??\017}?\347\006:=\007\2241>\205\310\022?\301|z?h\233\254=B\017\236>\255\207Z?\221\342\377>\375\377\177?\205\224X5y\224X6L\224X7\224\223X8\270\220X9D\205X:|WX;\250\240W<+\312T=4\274I>\357\375!?2\362m?\341>\206>\337\027F?\277;3?\220\374V?X\305\t?\037\202~?\326\323\275<\302m\271=\310\243\250>10b?\216\270\322>\316\375w?\335A\370=\347)\332>jhz?\024\n\257=;\024\240>+\017\\?\302(\367>\327\261\177?\371!\234;\206c\233<\370p\230=-\030\215>\266lL?\026\275$?\031\351j?\034\321\232>\367\001X?\230\372\006?.=\177?x=B<\363\357?=t\3616>gB\026?\024Bx?{?\360=\230\020\324>\263ux?:.\352=)g\317>T\306v?\017I\016>\215\007\365>\246\207\177?\037C\360;$\200\356<\220\216\347==`\315>4\375u?@\351\031>\027\307\002?#\341\177?\211\310\366:\226Q\366;\224w\364<\363+\355=\246\264\321>\325\240w?H\221\001>\261X\342>\253\220|?1\342X=IfM>\0133$?k\206k?\337\262\226>\243\257T?\021\361\017?t\007|?\3371z=\210\351j>\227\0055?\275\022T?\313\216\021?\346.{?\325<\227=\273\021\214>\020\200K?\331\356&?\343Ph?s\361\253>sfd?j\376\304>Efr?\033\014N><\226$?\234\025k?p\247\231>O\025W?\n\202\t?e\226~?(\316\263<\330\333\257=\017\302\240>\370\220\\?\336;\364>\217u\177?G&\n<\022\374\010=Eg\004>6\221\346>-y}?I\034 =\023\332\031>z\274\002?\r\342\177?-y\357:+\t\357;\307J\355<+k\346=\223~\314>-\243u?\014\027\037>\243_\006?\203]\177?U\026\"<\324{ =#2\032>\014\372\002?\216\334\177?8\263\r;\311d\r<i,\014=_`\007>Z\365\352>@E~?\374\340\333<&\372\325=\337\236\277>K\317o?W\251r>1(9?P\364L?\036x#?\276Wl?\313.\221>\214\007P?!\355\033?}\320s?\\\2609>D\004\030?\314\374v?\237\037\013>\221q\360>\000\016\177?\205\033q<2\217m=\013\310_>\203\340.?0\252]??\327\355>>\266~?x\014\244<x\303\240=\333$\224>\023\217R?\037\200\025?\353\306x?#\235\340=\267\372\307>\260\275s?s\300:>e\261\030?\010yv?2\303\022>\310t\373>[\353\177?u\036\245:4\351\244;\275\024\244<i\313\240=\214+\224>\267\224R?\222q\025?\257\320x?Fv\337=^\024\307>\020Xs?3|@>\221M\034?\303{s?,y>>&\013\033?\226\222t?F\255.>F\341\020?D\214{?2\375\213=\224k\202>\270eB?\222\035;?meI?\000\324+?b\374a?\'\366\323>\235lx?\333?\353=\022:\320>\271\025w?\274\254\t>NT\356>\277\307~?\374a\233<~o\230=\353\026\215>\225kL?\311\277$?\377\345j?\320\345\232>T\022X?\224\315\006?\340F\177?R\2328<\331\2056=\260c.>\305\260\020?\265\245{?\031\353\210=\211\207\177>\266\303??[x@?h\016??\240\337A?\2652<?\304`G?\273d0?Ih[?\216\345\372>\365\345\177?5D\320:}\357\317;\263\235\316<\242g\311=%\231\265>``j?b`\236>\246\305Z?s\203\376>\312\375\177?\242k\r9\300f\r:9S\r;4\005\r<z\316\013=\334\010\007>\213t\352>\323/~?\275q\346<8\366\337=\\x\307>`\204s?\317\374=>\376\274\032?C\324t?.\357*>\214f\016?~\302|?t\300L=?\204B>\022\221\035??Wr?\350\342N>k\026%?\r\202j?Z\200\235>\005\032Z?\307&\001?\262\372\177?0\263\2519!\245\251:\353l\251;\251\214\250<\342\024\245=d\306\227>$\221U?.\231\r?W\034}?\026\3246=\362\252.>\275\337\020?\023\215{?=\344\213=\tV\202>\224PB?jI;?P\024I?\242\215,?\007\374`?\023\020\332>\305`z?\374\363\257=\014\326\240>\326\237\\?\321\345\363>\211m\177?J#\022<\231\325\020=\211\266\013>5M\361>\365\'\177?\301TW<C\200T=\370yI>\310\325!?\300\034n??\032\205>6\000E?\213\2335?\350\030S?]\033\024?\332\256y?\322\'\305=\010-\262>iWh?\347\306\253>{Jd?\322\255\305>\251\266r?\364\214I>K\341!?\222\020n?\017n\205>\223PE?\336\3554?\003:T?\204\'\021?\351f{?M~\220=\203L\206>\326$F?W\0373?\376)W?\273I\t?\357\246~?+\240\253<\261\007\250=n>\232>\260\215W?\2209\010?h\361~?\327\274\206<\205\205\204=\214\344w>\327\341;?~\370G?\344\020/?-c]?Xv\357>\201\356~?m-\210<\353\351\205=\235Pz>: =?\201\236E?\260D4?\030PU?\334F\016?\261\320|?\216JI=+f?>\304\237\033?\244\023t?!\3435>c\224\025?G\271x?\3618\342=\336;\311>\254Ht?\377\3402>\225\241\023?x\372y?\266(\274=<\337\252>:\261c?\226k\311>\r]t?\244\2701>n\340\022?\257nz?,J\256=\017u\237>\200\227[?\214\327\371>\024\332\177?\341\230\027;\033?\027<\255\331\025=;^\020>d\007\370>v\300\177?\275\350};\347\354|<Z\005y=\244\341i>\203v4?\220\376T?\322\037\017?\006m|?\001\215a=o!U>E\305(?\n\007f? \263\272>x=m?\306\024\213>\373\231J?y\n)?\223\256e?H\346\274>\207in?\"\t\203>\353\377B?-\3349?\332\260K?\227{&?N\334h?\033b\250>M\003b?\312\313\323>\003^x?`\367\354=?\214\321>2\222w?\033l\002>9\237\343>\260\332|?\256\332F=>3=>\021>\032?V=u?\014\356$>\225]\n?9R~?\350z\325<\272\352\317=\014\317\272>\223Lm?\237\255\212>\231;J?\366\345)?\"\222d?\020\354\303>\246\346q?\032)U>\277\311(?U\001f?\202\327\272>&Qm?`\216\212>\361\036J?c(*?\345:d?|\017\306>\003\343r?{\020G>\323] ?\244\241o?\342&u>\005v:?=\231J?5\014)?Z\254e?h\364\274>\356pn?\016\326\202>\003\316B?\203D:?\212\363J?29(?N\270f?\352D\266>\304\303j?]\312\233>\r\306X?\366\334\004?f\241\177?s\355\274;\230\326\273<\376\207\267=\207\025\247>\366\035a??B\331>\036#z?VP\267=\327\347\246>1\376`?\365\002\332>\341\\z?\006k\260=\2338\241>\367\350\\?\326=\362>\264B\177?\215\277<<\345\222:=I\0232>\224\033\023?\224Kz?\016|\262=\366\355\242>\343)^?\262\351\352>UC~?,\323\334<O\337\326=\014T\300>\352)p?\304\264m>\267\2066?\217\213Q?\215\031\030?\314\354v?\215\r\014>\260\313\361>=6\177?_$I<6\254F=I\t=>\233#\032?\376Ru?\215\260#>\372\205\t?9\225~?Tb\264<\201i\260=Y7\241>\010\350\\?=C\362>IC\177?\341+<<\237\002:=\"\2201>\372\305\022??~z?\265m\254=B\351\235>\224jZ?\216C\000?\271\377\177?\245\233\2167\006\233\2168\213\230\2169\235\216\216:\354f\216;\177\310\215<KT\213=\267\331\201>J\326A?\354E<?\231<G?T\2650?\001\356Z?R\236\375>T\372\177?\257{\2659\232k\265:Q+\265;\345*\264<\2024\260=z\013\241>\204\307\\?\354\377\362>\376V\177?r\222(<p\326&=\303\n >f\007\007?a:\177?\236\006E<\022\250B=\337g9>\014\326\027?[\037w?V\035\t>w\202\355>\033\252~?\033\016\252<e\206\246=\023\374\230>\327\213V?\375\366\n?\030\037~?^\260\356<\372\273\347=a\203\315>\025\013v?}\034\031>\2717\002?T\354\177?VT\235:\376#\235;\023c\234<\314f\231=K\351\215>\305\'M?6\374\"?%\340l?\344\220\215>\333\330L?\032\272#?W\016l?/\037\223>\212\261Q?\256\270\027?.5w?=\330\007>\227\245\353>\300a~?\005\321\315<A\245\310=\355\374\264>3\005j?\216\275\240>\236\215\\?BO\364>Vw\177?ha\010<\311>\007=\225\307\002>\202\'\344>\236\370|?M\215?=\n\2306>\350\010\026?\337ix?_\222\353=\236y\320>a-w?xL\010>EP\354>r|~?\335\241\300<D\032\274=q\323\252>a\251c?v\234\311>\333qt?\353\2110>p\032\022?\026\341z?\034\226\240=\235\376\223>\324nR?@\323\025?\245\216x?\303>\347=y\"\315>\267\344u?AR\033>\024\303\003?d\307\177?\252?b;\265wa<g]^=\005KR>:\033\'?\305\032h?\347Q\255>\001Le?\202W\277>R\253o?\302\237t>\207/:?\270\031K?\255\337\'?W(g?\035t\263>\245\034i?\354\273\246>\230\337`?U\274\332>_\223z?\240\346\251=V\316\233>*\311X?U\324\004?\265\242\177?LR\272;\025C\271<\205\022\265=\037\020\245>u\262_?\207\320\341>\327p|?\210\237`=\017NT>\267I(?\206\243f?D\312\266>P\020k?\344\312\231>\2421W?\3504\t?\363\254~?\001\246\250<.-\245=\306\332\227>\273\241U?\316l\r?\023/}?\241?2=\330}*>\000\033\016?%\344|?N\214D=\334\035;>\263\354\030?\016Kv?\215k\025>\353;\377>j\377\177?x0\0268\027/\0269\226)\026:\220\023\026;\225\273\025<F]\024=\206\375\016>\356\013\366>\356\234\177?2\327\305;h\245\304<\373\354\277=\213\360\255>\030\262e?\347\317\274>\312]n?!Z\203>\345NC?p69?\333\332L?L\265#?\264\023l?\367\372\222>\266\222Q?R\007\030?\202\372v?\266A\013>6\243\360>\377\023\177?\261\'k<\251\307g=\n\252Z>\210\370+?E\312a?\302(\325>\253\324x?\350\375\336==\266\306>\022.s?;\331B>\275\305\035?i&r?E\234Q>#\264&?\033\230h?| \252>\3171c?\201\203\314>)\245u?\340\371\036>\207K\006?~a\177?H \036<\230\231\034=\337\234\026>\322u\000?\'\377\177?\035\345X8>\342X9\302\326X:\327\250X;z\361W<\334\030U=\266\002J>\244(\"?\270\304m?\"w\207>g?G?\025\2570?\201\367Z?Oh\375>G\371\177?=\017\3279\247\370\326:e\236\326;\2136\325<\354\251\317=e\233\272>\2350m?\213l\213>\t\352J?sO(?M\234f?\231\370\266>\307*k?\262\031\231>\253\243V?\202\266\n?\3574~?\004\355\343<\222\225\335= \234\305>\227\256r?\243\000J>b\'\"?\017\306m?\357m\207>\2746G?_\3020?#\332Z?,\017\376><\374\177?\017\nq9\337\373p:)\303p;\273\340o<\245]l=\330\271^>\"H.?\376\207^?\312\276\350>8\343}?\200\024\006=\350\260\001>\357\207\342>\224\233|?\224:V=4\006K>\177\305\"?\310\033m?\245\372\213>%kK?- \'?\271\024h?By\255>gee?\243\266\276>\252Yo?\367\021y>\372|<?\267\324F?\355\2331?\302\213Y?\034\266\002?\230\342\177?*$\353:,\270\352;\302\t\351<\254h\342=\014a\311>\217Xt?\003\3721>\030\013\023?hUz?\213O\261=\250\365\241>gt]?\300\021\357>Z\341~?[\262\216<\0106\214=\244\234\202>\321\225B?\241\271:?q\035J?\334+*?Q6d?*,\306>\374\357r?0VF>\324\353\037?%\024p?\335\345n>\320)7?\010tP?\033\335\032?_\271t?\301w,>xk\017?\353H|?\321Qj=6\352\\>]A-?\322\377_?\025\001\340>E\000|?;\357{=Lpl>|\3305?\226\262R?n$\025?\003\004y?\244f\331=\276R\302>\371#q?\214\363_>\377\370.?I\206]?E\251\356>^\323~?\230\240\225<\366\344\222=\267[\210>\333\025H?\315\316.?\036\304]?a?\355>Y\240~?\032\342\256<Y&\253=\321\330\234>\254\230Y?\367\221\002?\224\345\177?\231L\323:f\365\322;\266\231\321<\324<\314=\264\336\267>A\255k?\265\255\225>\277\327S?\220)\022?\204\330z?i\235\241=}\334\224>L)S?\311\360\023?\177\311y?\362\374\301=\006\235\257>\375\301f?\271\006\266>\343\237j?\243\271\234>\201\200Y?\230\325\002?\336\337\177?Ty\000;\3328\000<\355o\376<\333\210\366=q\333\330>\327\003z?\331\n\273=\276\365\251>\033\025c?Z5\315>7\354u?\277\343\032>\014v\003?\025\320\177?\214\207?;@\370><k\276<=\347\0134>\270c\024?\022\201y?\203\227\312=\024\215\266>B\355j?M\265\232>\371\353W?\0167\007?\306/\177?\026\221O<\346\357L=\363\256B>\213\253\035?\276>r?\363@P>\214\346%?0\216i?p\320\243>\310\315^?\337!\347>\231\225}?@$\031={j\023>;c\374>\363\362\177?{\277P:\356\224P;\373\352O<\204GM=\312\375B>b\334\035?Q\021r?/\311R>\203e\'?\247\277g?\300\241\257>\365\304f?\247\363\265>\334\224j?\033\003\235>g\271Y?@6\002?n\354\177?\374\203\234:$T\234;7\225\233<\306\240\230=\334@\215>5\221L?\330e$?\313Lk?\2675\230>\232\353U?\314\246\014?\301\177}?\206\177\036=k]\030>\247\261\001?\206\364\177?/\2357:C|7;\300\3706<\245\3554=\264\357,>\366\272\017?;\"|?\246\264s=\2374e>\323\3461?L\027Y?+\373\003?\232\300\177?QX};\232]|<xzx=\240gi>-44?\014kU?\365\376\r?u\360|?<\213A=\010f8>S1\027?f\230w?b\017\002>\364\024\343>\275\273|?\262eN=5\377C>\202{\036?G{q?\373\036[>y;,?\002na?\233[\327>7\214y?\352D\311=A}\265>\'Pj?6\314\236>\267\027[?\020\261\374>\016\365\177?\312\027/:\331\371.;A\202.<k\246,=k_%>b\252\n?\3748~?\271\355\341<\233\262\333=9!\304>\216\377q?S\306S>1\372\'?B\007g?GI\264>m\233i?\022y\243>\276\216^?\346\226\350>\362\333}?\037\336\007=_\\\003>\350\004\345>\t(}?B\3703=\360\017,>\225&\017?\323i|?\375Sb=w\322U>},)?\341\202e?\275\373\275>\315\371n?\373E~>?\"??\202\270A?$\203<?\020\311F?\265\2651?\277cY?\373%\003?Z\330\177?\225\177\036;s\035\036<\322\226\034=O\232\026>\003t\000?.\377\177?lIR8\271FR9\356;R:\304\020R;edQ<P\267N=\230HD>\311\250\036?\007Pq?\017\204]>\275\230-?\311\203_?f\347\342>k\261|?d\351P=\243AF>=\337\037?\263 p?\3675n>\336\3136?o\025Q?\267E\031?=\005v?\270r\031>#t\002?\353\347\177?o\225\300:\377L\300;\030,\277<\001\266\272=b\260\251>i\346b?CV\316>\225]v?\210Y\024>=\267\375>\310\372\177?\336\363\2469B\346\246:\332\257\246;\311\326\245<T{\242=J\227\225>\037\305S?ZZ\022?\256\274z?\344\363\244=\270\252\227>\231zU?o\325\r?\203\002}?\000#==5g4>\342\236\024?([y?l\026\317=\304%\272>\241\360l?\255 \215>WtL?\335\252$?\377\375j?eE\232>9\223W?i*\010?J\365~??\320\204<\003\251\202=\001\246t>\3122:?\312\023K?\227\355\'?\375\026g?\360\343\263>S_i?R\005\245>\310\252_?l\376\341>\241{|?\377\377]=\277\367Q>\"\352&?\237Vh?\n\314\253>\334Md?\243\230\305>\000\255r?q\027J>15\"?P\267m?\026\323\207>\335\225G?\037\356/?\315\032\\?\316\345\366>&\255\177?\301~\245;\310\250\244<\202Y\241=L\243\224>`\371R?/m\024?\010{y?\335N\313=\030 \267>JAk?\337\202\230>\022*V?\323\376\013?q\300}?E\240\016=\342\250\t>\253N\356>\370\306~?\247\304\233<j\316\230=\261g\215>\377\263L?\210\022$?\"\253k?\373\273\225>\232\343S?\200\n\022?\026\352z?\230\201\237=Q\025\223>%\251Q?\033\316\027?D%w?N\305\010>\177\001\355>9\227~?[e\263<\244w\257=\no\240>\030S\\?`\241\365>y\224\177?\213\264\326;fL\325<\245\276\317=\351\253\272>\2209m?s/\213>V\262J?\247\321(?@\367e?\304\027\273>\316sm?t\241\211>\264DI?\374\036,?W\225a?\347k\326>:?y?fe\322=\026\310\274>\257Yn?pv\203>rjC?o\3748?ZBM?\024\274\"?\002&m?\344\264\213>\330+K?\037\265\'?B]g?\227\036\262>\241Nh?+\000\254>\034pd?\310\301\304>CJr?l\234O>\327\204%?T\001j?3\327\240>\261\240\\?\335\340\363>\021m\177?\264\232\022<\340J\021=\202#\014>\226\353\361>\3039\177?\261\243E<\\AC=\221\3629>r.\030?\010\335v?\326\367\014>\253\037\363>3Z\177?5a%<\334\265#=\312*\035>i\013\005?6\232\177?\rD\313;C\001\312<\023\006\305=\310\021\262>\324Fh?\3772\254>m\221d?\201\360\303>\274\350q?k\013U>k\270(?g\027f?\275J\272>\312\004m?a\227\214>\327\370K?\001\321%?\254\247i?8(\243>2T^?|\360\351>T\031~?C\207\361<Ch\352=\353\223\317>J\327v?&M\r>C\233\363>gf\177?4=\031<K\316\027=\373-\022>\271\237\372>\031\343\177?\274\035\347:h\265\346;\224\025\345<\227\255\336=fw\306>\342\021s?\325nD>[\300\036?h9q?S\304^>\rN.?n\177^?`\361\350>^\354}?a\324\003=a,\377=3a\337>\352\327{?\335\331\202=;\373t>C_:?\310\302J?@\253(?%(f?\337\337\271>j\312l?\264$\216>\253\\M?~|\"?\310jm?(\337\211>\264}I?E\234+?\205Hb?,#\322>\237\310w?\344{\376=\241\334\336>\335\265{?\230\367\206=(%|>\335\016>?1\323C?\031\0378?\205\311N?P\002\037?\302\371p?&Hb>HG0?\304\224[?0\347\371>\324\332\177?\366\232\024;\262D\024<4\355\022=\376\247\r>\276\036\364>\336r\177?\036\324\014<;\236\013=\350\333\006>V2\352>\235$~?/\370\353<#,\345=#\207\313>\255>u?f\332$>CP\n?\206V~?6[\323<:\347\315=\2663\271>\244kl?\001\250\220>\222\222O?\327\020\035?\270\314r?\200PH>\010!!?\337\331n?V\000\200>V\000@?T\377??X\001@?P\375??`\005@?@\365??~\025@?\375\324??\352U@?\271S??\276VA?XK=?\010LE?\264\3674?\274)T?WR\021?\330O{?\267E\223=\223\256\210>3cH?4 .?\245\301^?\304i\347>}\243}?\376\273\025=\270B\020>\340\337\367>\372\275\177?\371\351\203;\006b\203<\232F\201=&;r>.\3568?\272[M?\305~\"?Shm?\364\357\211>4\215I?\251x+?\371xb?@\371\320>\205\\w?\254\215\005>\027E\350>\342\314}?\355\221\013=p\320\006>p!\352>\273!~?\304c\355<\265\202\346=\321\220\314>\203\252u?)\253\036>;\025\006?\376k\177?|\254\023<\276W\022=;\035\r>\332U\363>\233_\177?\035\000 <\035p\036=4O\030>\252\247\001?\013\365\177?mA/:n#/;\235\253.<\346\316,={\204%>x\303\n?\2250~?\324\021\346<\264\233\337=\2371\307>\017es?\305\300?>w\330\033?\177\342s?\223\2538>\315]\027?\013xw?\330\362\003>x\344\345>eV}?\365\240(=\272\257!>\032(\010?\340\365~?|\205\204<\254`\202=\304\'t>\317\3609?\205\213K?\317\323&?\275qh?\036\033\253>\377\330c?\226s\310>]\362s?\253\3057>\237\312\026?2\342w?\303}\373=\307\233\334>q\033{?\306\223\231=\207\017\216>\323IM?\007\252\"?\2259m?P/\213>6\262J?\362\321(?\340\366e?&\032\273>\026um?\256\230\211>\226<I?\2201,?\264{a?/\010\327>\237qy?\260l\314=\003\005\270>\322\302k?\203\034\225>\322^S?\203e\023?\031\037z?\002\313\267=\206L\247>\037Da?vZ\330>%\334y?\374\304\277=\013\320\255>>\235e?bT\275>\017\243n?\267{\201>\204yA?F\004=?\333\323E?s\3203?#\rV?\260L\014?\342\242}?\357\341\025=\342e\020>a\022\370>%\301\177?I/{;\3238z<\207fv=\364\223g>\33643?\223\007W?i\247\t?5\213~??V\271<\321$\265=.\037\245>\'\275_?\213\220\341>\260a|?\014Nd=Z\224W>\2711*?\227.d?\217\\\306>\317\005s?x\034E>C+\037?\372\321p?\225yd>b\1771?\364\267Y?Q:\002?&\354\177?s\305\236:7\224\236;\301\317\235<}\305\232=6\023\217>\365/N?\370z ?\034\204o?\271\302v>\005L;?}\017I?\250\230,?\255\354`?\035m\332>6|z?\010\254\254=\024\035\236>@\222Z?\273\246\377>\341\377\177?\221\t\3716\030\t\37173\007\3718\241\377\3709[\341\370:`h\370;L\206\366<\031\033\357=\2450\323>\021(x?>M\363=\306e\326>==y?\301\241\322=\010\370\274>\324rn?\362\310\202>0\301B?E_:?\304\302J?I\253(?\032(f?)\340\271>\222\312l?\242#\216>\267[M?\314~\"?Lhm?\'\360\211>c\215I?=x+?\214yb?\267\365\320>9[w?\r\241\005>\274a\350>.\322}?\246D\n=\304\231\005>\367V\350>1\320}?\277\301\n=g\016\006>D\003\351>\226\357}?\304\t\003=(\261\375=4D\336>\014\216{?A\306\213=%<\202>&7B?\022~;?\226\262H?;l-?\025\303_?\013m\341>:Y|?\033\\f=\201gY>X?+?\242\306b?\214\032\317>\'\251v?\010\372\017>kw\367>.\267\177?\337z\221;\206\325\220<\377E\216=\310c\204>\203PD?\205\0247?\264\230P?\321\200\032?S\006u?~\023(>\030}\014?#\220}?J{\032=\301\247\024>O&\376>\224\374\177?\206\034[9\315\020[:\360\341Z;\312&Z<2?W=~\357K>\022R#?\323\201l?\237\021\220>j\017O?\357U\036?\375\236q?!$Y>\220\030+?\365\372b?1\327\315>\t,v?\t6\027>\327\341\000?\343\374\177?\2448G9\363.G:5\010G;wmF<A\006D=\250\244:>\274\237\030?\244\206v?\240\371\021>\343T\372>\336\337\177?\355u\000;v5\000<Ai\376<\231\202\366=\261\326\330>c\002z?/7\273=\372\031\252>q-c?\224\236\314>\n\260u?\335Y\036>\032\335\005?xv\177?\372=\t<\254\027\010=\032\222\003>\307T\345>\3068}?\216\340/=AS(>\351\247\014?P\177}?\035\233\036=\340v\030>\207\303\001?\216\363\177?\377\017G:L\351F;\277NF<G\350C=\214\211:>\202\216\030?\341\223v?l5\021>\020<\371>;\322\177?\030\3646;Xq6<Ci4=\000w,>\370j\017?)I|?\335Bj=\370\334\\>\3269-?w\n`?1\301\337>=\360{?\t\321\177=\347\326o>)\2527?\305\225O?\344\010\035?\361\323r?\345\350G>\353\341 ?\370\032o?\246y|>\2709>?\370\177C?\021\3178?\004\223M?\356\370!?\203\367m?[\032\206>\034\365E?\321\2073?k\202V?x\020\013?S\026~?b\002\363<\366\314\353=\270\246\320>\030>w?eS\007>C\342\352>\034B~?\354m\335<\264q\327=\257\307\300><cp?X\220j>K\3254?\237bT?\207\274\020?\221\237{?\335\250\211=\030h\200>\355g@?|/??`\236A?\305\270<?ycF?\315\2252?\220\004X?s\363\006?\274>\177?\234\261@<pm>=\006\2235>\267`\025?\365\333x?\234!\336=\322\t\306>s\340r?M5G>St ?\332\212o?\301dv>N\033;?\234iI?f\312+?\207\tb?\240\245\323>\317Px?\220\204\356=8\275\322>t\377w?b\020\370=j\004\332>O]z?\310]\260=\245-\241>\331\340\\?\366l\362>\275G\177?\317\2767<F\2575=1\240->\267/\020?\001\350{?\240\347\200=#\225q>\233\2268?\017\367M?\312\005!?\007\366n?Sz~>\225<??\201\204A?\307\355<?\267\376E?\320r3?6\244V?\010\265\n?m5~?\232\256\343<\241Z\335=\356m\305>|\231r?\024/K>(\336\"?\363\000m?\211\261\214>i\020L?\001\231%?\251\351i?\363s\241>\332\024]?\300>\361>K&\177?\303\373X<\034\034V=\354\352J>\007\265\"?\251-m?\262\200\213>b\374J?z$(?S\322f?\313\235\265>\024cj?iN\236>\361\267Z?5\321\376>\232\376\177?Z\021\2638p\r\2639\311\375\262:6\277\262;\231\305\261<\002\352\255=>%\237>4[[?E0\373>\332\350\177?z\"\271:\211\337\270;\205\324\267<y\264\263=\275\357\243>O\344^?V\234\346>b{}?\273\221\037=UZ\031>\017c\002?6\351\177?\250A\266:\310\000\266;\375\375\264<L\376\260=w\262\241>\370B]?12\360><\006\177?\007\320x<\270\010u=\035`f>\347\2132?5\024X?g\310\006?\371G\177?\232\2027<jt5=\215j->A\014\020?\335\371{?p|}=}\314m>l\2236?\345uQ?\272P\030?\017\303v?\234y\016>\247M\365>\225\215\177?\026p\344;g\330\342<P\220\334=E\317\304>\200Pr?ECO>\316O%?V?j?\350;\237>Xl[?\\\316\372>\006\345\177?y\271\327:\224^\327;4\364\325<\262]\320=\245*\273>\366}m?\364[\211>[\004I?\017\262,?<\311`?\247C\333>|\272z?17\245=+\343\227>\220\250U?\207Z\r?\2716}?\325`0=\201\310(>\217\366\014?\324_}?\253Q&=\313\220\037>\200\263\006?aL\177?U!3<\367+1=\031\202)>\330r\r?\212,}?I\3362=\253\016+>\204{\016?\010\271|?\267\016O=*\227D>6\331\036?}!q?\272\026`>\310\014/?7i]?\025S\357>\356\351~?\016r\212<\025\033\210=\370\036~>\232\016??=\337A?\2003<?F_G?\017h0?@c[?S\002\373>\027\347\177?\3642\307:t\345\306;d\260\305<\035\353\300=\354\276\256>\3015f?\367\210\271>\260\232l?\360h\217>y{N?\032\302\037?\252=p?\313\237l>\013\3625?\213\207R?\215\223\025?\327\271x?\342\'\342=\224.\311>\373Bt?\25733>Z\327\023?N\331y?\204\033\300=[\026\256>P\312e?\3475\274>\227\014n?j\211\205>\303jE?\032\2654?\265\227T?^0\020?\254\347{?\333\361\200=\006\247q>\014\2408?Z\346M?z.!?\360\313n?\332`\200>\266`@?\003>??\257\201A?\216\363<?\267\363E?\335\2123?\202}V?\273\035\013?\272\021~?\364E\365<\374\355\355=\254I\322>d\326w?a\337\374=P\246\335>\016d{?t\326\220=5\230\206>\270lF?u\2012?\263$X?\376\232\006?yQ\177?\017\020.<\2476,=\020\371$>\014e\n?\315O~?\321\254\326<\246\014\321=\361\265\273>\222\310m?\261\\\207>~&G?\201\3460?\000\243Z?\343G\377>|\377\177?\252i\0048\230h\0049Pd\004:3S\004;\315\016\004<P\376\002=\267\233\375=\0224\336>\312\211{?\263I\214=\235\255\202>p\246B?\007\227:?\337\\J?\267\230)?\352\366d?[q\301>\231\266p?\201\373e>\206T2?\177kX?\256\327\005?vw\177?IA\010<3\037\007=\024\252\002>\222\373\343>\010\357|?R\344A=\261\2668>\351d\027?\331rw?f@\004>\217W\346>\253m}?\366\355\"=\326r\034>\314\213\004?U\255\177?9 \245;4K\244<\260\377\240=\235W\224>\316\271R?\304\021\025?S\020y?\033\362\327=\t-\301>#\225p?\256\322g>5W3?\214\320V?\340<\n?\300\\~?\225H\320<\344\374\312=b\336\266>\320\033k?\354}\231>\026\364V?b\334\t?\r{~?\312Q\301<\346\301\274=;\\\253>\036\004d?Ff\307>b|s?2p>>\203\005\033?Y\227t?\341g.>\211\263\020?D\244{?\252\027\211=\276\324\177>]\352??>+@?f\251??\277\254@?\260\244>?C\257B?\245\204:?\201~J?{J)?<\\e?\271\360\276>=wo?\027vw>\321\250;?\001cH?\246 .?\001\301^?\215m\347>7\244}?P\216\025=a\030\020>\n\243\367>\017\272\177?\006\274\213;z#\213<~\306\210=\034H\177>\355\243??\242\267@?\256\216>?Q\332B?\321*:?I\"K?\222\313\'?_Ag?\246\322\262>\260\273h?\2737\251>\325\224b?\265M\320>\014\035w?\266?\t>\313\264\355>V\261~?\007z\246<\363\027\243=\003\033\226>\\2T?\250;\021?\027\\{?\026\314\221=\374j\207>\3653G?\215\3100?\267\320Z?\250D\376>\000\375\177?w\360?9y\347?:\202\303?;\3353?<\243\370<=\301@4>\371\205\024?,ky?u0\315=\240\241\270>\204\032l?\357\314\222>ykQ?Ak\030?\333\256v?g\245\017>\264\375\366>\327\256\177?L\037\242;\365Q\241<\264$\236=\211\356\221>\375\254P?\265M\032?\1770u?-\252%>\371\334\n?\367\'~?;Q\352<v\235\343=bQ\312>;\276t?\3140,>e<\017?x_|?\035\330d=\003\017X>\255x*?\271\320c?7\247\310>\273\010t?h\2016>W\372\025?\343sx?\315d\352=?\221\317>H\326v?)\\\r>\377\260\363>\177h\177?\327&\027<\334\301\025=(H\020>\260\347\367>y\276\177?\037\355\202;3g\202<\314S\200=\235\222p>\317\r8?\323\347N?\245\267\036?\307Aq?\334M^>\024\013.?\021\340^?x\265\346>\\\200}?~Y\036=U:\030>\000\231\001?\312\365\177?\353U#:\335;#;\310\323\"<\2055!=?\335\032>\204q\003?\222\320\177?\212\223=;\'\007=<\331\330:=\334R2>\007E\023?\2722z?\241s\265=\n`\245>#\353_?\037}\340>\013\037|?zzt=\337\342e>\364F2?\324\200X?\264\234\005?\004\202\177?\312{\373;\262\215\371<\213\363\361=\374]\325>p\346x?\351\344\334=\241\021\305>\037or?\177\215M>\204J$?\324kk?xe\227>\025BU?5l\016?\362\277|?v_M=V\023C>\270\351\035?\333\004r?\310zS>\340\315\'?\201>g?&\345\262>\326\306h?\275\356\250>Dcb?\316~\321>Q\215w?\014\265\002>\350\013\344>\232\362|?\'\005A=\233\3547>\223\343\026?b\320w?l\223\375=\325-\336>$\210{?\226|\214=\206\331\202>g\321B?n=:?n\000K?\375\032(?8\336f?SQ\265>\2156j??v\237>e\230[?k\322\371>\325\331\177?\271\225\030;\307:\030<\257\320\026=\034C\021>\254O\371>C\323\177?B\3262;SY2<Rh0=X\317(>%\373\014?\371]}?2\306&=\330\373\037>$\375\006?\240<\177?\373\312B<\032z@=\244n7>\314\222\026?\303\tx?\"\333\366=\346\031\331>\342\026z?\340\305\270=?\032\250>\t\322a?J\371\324>\277\304x?\302\336\340=\360-\310>\021\324s?\227|9>C\343\027?\201\025w?\013\260\t>#Y\356>j\310~?m\r\233<#\036\230=\252\321\214>V-L?4T%?5:j?\365]\237>\021\206[?L;\372>\272\336\177?r\007\005;Q\302\004<\355\256\003=K\346\376=\221,\337>v\312{?Xz\204=\027\321w>\316\327;?E\013H?\242\346.?7\241]?\302\013\356>\247\275~?\252a\240<\330=\235=;+\221>v\004P?\332\364\033?\300\311s?\356\021:>jB\030?\354\315v?S\330\r>\245d\364>Hy\177?9q\006<\316V\005=\231\377\000>\346~\341>}]|??Se=^|X>\327\267*?\245|c?\335\262\312>\370\346t?\354\335)>;\260\r?\203\022}?\311:9=i\3320>&O\022?\031\303z?\371.\244=r\005\227>w\363T?H=\017?\013_|?h\362d=]&X>-\206*?\314\276c?\377\026\311>\3378t?\217\3063>\2756\024?\233\235y?R4\307=\006\324\263>\334Ui?\247C\245>\007\327_?\241\365\340>}<|?=Vm=\261\225_>(\304.?\255\323]?,\344\354>\333\222~?\334\215\265<\315\207\261=+$\242>\212\226]?8J\356>Z\306~?\256\022\234<x\031\231=\211\247\215>\030\355L?y\211#?|Dl?)\261\221>\'xP?\274\322\032?\021\302t?\324\370+>=\027\017?\023q|?\346\220`=\010AT>\026B(? \255f?\255\214\266>\007\355j?\330\266\232>1\355W?\2633\007?\2070\177?\310\320N<u4L=;\006B>\337B\035? \237r?D\336J>c\255\"?\3615m?,H\213>\344\310J?\373\234(?E:f?\035l\271>\312\212l?\321\324\217>0\332N?C\331\036?o!q?v\027`>2\r/?\234h]?\237V\357>d\352~?\2277\212<\227\342\207=\376\274}>7\335>?h@B?\351j;?0\326H?G\033-?\2315`?\021\276\336>\357\255{?\272\354\207=\221\316}>\025\346>?\374.B?\365\216;?-\223H?\210\263-?\221]_?d\313\343>s\344|?+yD=\217\014;>\271\341\030?\232Sv?3\355\024>\327\210\376>\332\375\177?fq\t9\311l\t:XZ\t;\246\020\t<\033\353\007=~h\003>\356\026\345>\324+}?\331\n3=V7+>\230\226\016?\273\254|?\207\rR=\344GG>\256\177 ?T\177o?a\005w>\211n;?u\317H?\230*-?\375\037`?\360?\337>l\317{?\310\340\203=\234\305v>\204M;?\267\014I?\374\236,?\332\343`?\213\242\332>\332\213z?\365\314\252=Z\216\234>\347^Y?\2013\003?\002\327\177?\017\334#;-s#<\276\321!=&m\033>\317\325\003?*\305\177?\335 k;\347Hj<B\357f=\025\352Y>j\212+?\327`b?\271\215\321>\274\222w?\031d\002>J\223\343>\n\330|?\002\200G=~\310=>\024\234\032?\263\357t?X^)>\353Z\r?\2176}?\037k0=\347\321(>\334\374\014?F]}?\325\361&=\354# >\261\030\007?\2206\177?\316\321H<\254[F=\215\300<>\265\365\031?[xu?C\214!>\324\017\010?\007\374~?\203x\201<\\\331~=\033\376n>\27567?\274]P?\"\025\033?%\212t?D(/>?2\021?\'a{?\364/\221=\t\345\206>\200\265F?\366\3401?q Y?\267\341\003?\273\303\177?\330\333p;;\371o<nul=\342\316^>\004T.?\314v^?[$\351>\203\365}?\230\224\001=M\366\372=\2165\334>\005\377z?2\376\234=Y\365\220>\303\325O?}i\034?\005cs?9\336?>\342\352\033?s\322s?\372\2239>-\362\027?[\nw?\353U\n>vK\357>\357\350~?\'\360\212<\351\224\210=/\362~>\320x??B\rA?\017\341=?\344+D?\236b7?\350\021P?8\323\033?\020\347s?si8>\2033\027?\321\226w?\024\'\002>M8\343>\265\303|?\300tL=\034@B>\315f\035?1~r?\343\265L>K\311#?]\375k?\311\221\223>\323\022R?\277\277\026?\356\351w?\332\225\372=\271\354\333>\223\352z?\250r\237=\264\010\223>i\236Q?~\351\027?\332\020w?G\365\t>V\276\356>7\326~?\2107\224<\006\211\221=u1\207>\270\375F?\021A1?\034\030Z?(,\001?\200\372\177?\263\362\2579\226\343\257:)\247\257;\035\266\256<=\374\252=\276\265\234>{}Y?\013\336\002?\035\337\177?u{\003;\3557\003<\344*\002=\325\017\374=\357\t\335>\2679{?\243\357\225=\210\365\212>n}J?\373L)?\001Ye?1\005\277>\243\201o?5\345v>\341];?_\356H?3\344,?\r\203`?\234\353\334>k1{?6\357\226=\220\317\213>\021DK?/|\'?\266\243g?\330V\260>)6g?\372\032\263>7\347h?\222\032\250>B\322a?\354\367\324>I\304x?\236\354\340=\3008\310>\310\330s?R89>\265\267\027?\3465w?\210\315\007>\333\225\353>>_~?\244\r\317<\354\321\311=\202\356\265>\342\221j?\357\026\235>\273\310Y?D\013\002?J\357\177?\375\250\205:\031\206\205;\320\372\204<3\322\202=\334\355t>JX:?\201\317J?\206\215(?\340Mf?\317\356\270>uEl?\220\252\221>xrP?\010\341\032?\022\266t?\345\247,>c\213\017?z9|?-\021n=\356:`>\"!/?EK]?\321\001\360>:\000\177?e\306~<,\320z=xtk>\266P5?\355\225S?\301\325\022?\371tz?\235\211\255=4\325\236>\212\036[?0\212\374>\007\364\177?\255\210?:\331d?;\302\325><\272\234<=Q\3553>\342O\024?\257\215y?C\030\311=_Y\265>?;j?\023W\237>\337\200[?\005Y\372>\r\340\177?\360u\377:z\366\376;\236\372\374<\253*\365=U\321\327>b\261y?\316\332\304=\325\356\261>\2111h?\273\275\254>\366\353d?s\266\301>K\330p?\200 d>\006N1?(\004Z?Od\001?@\370\177?\021\356\3679\r\320\367:\034X\367;%z\365<\r\037\356=Uo\322>\322\343w?\374L\373=\373v\334>?\021{?\205\315\232=\010\032\217>\3705N?Fl ?\003\223o?\361\362u>7\340:?\212\326I?\305\317*?\253\\c?\222y\313>\0359u?\360+%>\205\207\n?\207D~?$<\334<hP\326=\030\343\277>\210\361o?|\312p>j+8?\351\263N?~7\037?\016\306p?\247!e>Y\3341?\242\'Y?\256\315\003?#\306\177?\347@g;\000pf<K2c=\'\230V>x\237)?!\356d?\307\250\301>\243\321p?a~d>\n\2021?\330\263Y?\325E\002?V\353\177?\313>\245:v\t\245;\2534\244<\017\352\240=bE\224>x\252R?g9\025?!\366x?\216\n\333=,\235\303>\207\301q?N9W>\372\374)?\367sd?\223\251\304>\r?r?\221<P>\363\343%?C\221i?\"\274\243>&\277^?\211x\347>R\246}?\373\t\025=\261\235\017>\233\362\366>\016\256\177?\034\257\243;\313\335\242<\337\240\237=\270/\223>\232\277Q?\305\224\027?\271Ow?\231L\006>\017_\351>\361\377}?9\007\376<\246&\366=\335\220\330>\363\354y?\337\304\275=V/\254>\007\217d?\222\377\303>\315\357q?\314\246T>\241}(?\001bf?\020n\270>\272\375k?[\217\223>\303\020R?\010\305\026?,\346w?\221\006\373=\325A\334>s\002{?\263\224\234=\001\234\220>\"\210O?\313*\035?\033\265r?=\243I>\315\356!?A\002n?\177\320\205>\260\256E?w!4?\215\211U?{\255\r?\260\023}?0\3618=w\2270>P#\022?\020\334z?{0\241=\272\200\224>\\\334R?\\\270\024?\263Jy?\230\t\321=\203\263\273>G\307m?\225e\207>\336.G?\340\3230?r\277Z?\243\246\376>.\376\177?<\364\3508\234\355\3509\036\323\350:>i\350;A\303\346<%C\340=s\264\307>\334\236s?=~<>\323\313\031?:\232u?\244\232\037>G\272\006?\365J\177?_\2134<\016\2162=p\305*>\274J\016?\366\316|?{\266I=z\307?>\251\334\033?\330\336s?{\3408>\235\177\027?H_w?td\005>$\010\350>\207\301}?\023\\\016=ni\t>\333\361\355>\002\272~?t/\242<s\371\236=W\242\222>\034GQ?\262\307\030?\314gv?e\302\023>`\340\374>>\366\177?\264\024\034:\352\374\033;\336\235\033<{#\032=\220V\024>\006\263\375>\265\372\177?\003^\2519\002P\251:\004\030\251;\2438\250<P\304\244=\314\202\227>\tZU?Z,\016?z\334|?\006kF=j\316<>u\376\031?Aqu?\217\364!>-W\010?\276\351~?\325\211\212<\0162\210=\315F~>\251\"??\261\267A?\320\204<?\346\305F?\265\2741?\336XY?ZD\003?O\325\177?[\251*;\2267*<\337r(=o\205!>(\013\010?4\375~?3\343\200<%\270}=\315\000n>n\2576?\026FQ?M\312\030?\307ev?@\340\023>\331\n\375>A\367\177?3\361\013:\023\336\013;\250\221\013<Ja\n=z\264\005>p~\350>w\327}?5\370\010=\253c\004>\336\213\346>\035x}?\354^ =\177\027\032>n\347\002?D\336\177?\007\335\006;\373\225\006<\365z\005=e!\001>u\261\341>\177i|?Rhb=\214\344U>\0057)?Rue?\272Q\276>\n&o?\341\337{>\257\353=?V\027D?`\2167?\016\306O?\251\220\034?&@s?\342\324A>7$\035?\032\273r?DMI>\251\272!?a9n?\034U\204>VBD?\30427?\230dP?\347\003\033?\265\230t?\014T.>u\246\020?\025\253{?\371D\210=\233g~>+3??\033\227A?\255\307<?-GF?\377\3232?\003\242W?\356\001\010?\205\377~?~z\177<\251~{=\217\rl>O\2435?\344\013S?&=\024?\216\231y?y\257\307=07\264>\271\220i?\264\277\243>\271\301^?Ji\347>e\243}?\274\301\025=\nH\020>\205\347\367>v\276\177?\205\362\202;\216l\202<\373X\200=\257\233p>\235\0228?g\337N?i\314\036?\321-q?Sh_>\230\252.?\377\370]?&\t\354>nq~?\351\022\306<\337H\301=\001\013\257>\366ef?\274T\270>\215\357k?\375\356\223>\244aR?7\365\025?iwx?\312\372\351={?\317>=\267v?\004)\017>\234J\366>\276\241\177?\301=\274;\353(\273<E\342\266=t\215\246>(\277`?\234\200\333>\355\313z?\004 \243=\313!\226>\3707T?\345,\021?\007d{?H\327\220=\353\230\206>emF?\371\1772?\013\'X?\211\224\006?\316R\177?R\275,<\027\353*=F\311#>\312\226\t?4\220~?\341\335\266<\340\310\262=a-\243>\360W^?j\332\351>\205\025~?\313g\363<Y,\354= \360\320>+Yw?\265\277\005>\t\217\350>\202\332}?\2578\010=\353\260\003>\221\202\345>HB}?\'\215-=\2452&>79\013?\"\010~?7\377\371<#^\362=`\257\325>r\001y?G\264\331=\343\217\302>aAq?{S^>B\016.?~\333^?\232\320\346>\265\205}?\314\t\035=|\004\027>\351\276\000?\307\375\177?\026^\0169$Y\016:ZE\016;I\366\r<d\273\014=\214\345\007>$\271\353>\332d~?\321H\314<\2600\307=\030\321\263>\036Ti?\036O\245>\'\337_?\363\304\340>\2450|?\2545p=a\037b>\20600?\022\267[?\265\"\371>\341\320\177?\202X<;\360\315;<\326\2469=\255<1>p\217\022?\020\236z?\355\236\250=\316\274\232>\351\361W?\275&\007?o3\177?\\\355K<\223cI=\273|?>\344\255\033?o\007t?.\2246>l\006\026?\225kx?\347^\353=\373Q\320>\244\036w?\377\'\t>\024\222\355>\\\254~?\342\360\250<\372t\245=\372\026\230>\251\322U?\272\351\014?\005e}?m\014%=\334e\036>c\345\005?\362t\177?!\302\n<I\225\t=7\366\004>\003e\347>\223\242}?X\365\025=\340w\020>6,\370>\274\302\177?y\326t;P\354s<\246Jp=\3451b>\334:0?\177\247[?\360{\371>\213\325\177?O\267);\313F)<\021\207\'=\371\254 >\316v\007?&!\177?\226\027^<\342\024[=\026]O>+_%?h-j?\355\262\237>\032\306[?\201\314\370>%\314\177?LCO;~\233N<\204\000L=w\327A>\321%\035?\244\271r?4bI>]\307!?\373+n?e\261\204>_\233D?]t6?\317\252Q?\334\311\027?m(w?@\226\010>\202\274\354>\351\214~?R~\270<\243V\264=eu\244>+D_?\261b\344>q\005}?\367k<=\013\3013>)3\024?\335\237y?\243\357\306=\261\234\263>\3424i?\233\034\246>\032p`?\334]\335>\210P{?\2040\223=l\234\210>FRH?yF.?d\212^?\237\260\350>\244\340}?\260\266\006=tH\002>\022j\343>\334\316|?\340\274I=>\315?>D\340\033?\264\333s?\365\r9>\252\234\027?\346Iw?g\243\006>\022\337\351>S\026~?7\002\363<\316\314\353=\231\246\320>\r>w?\017T\007><\343\352>EB~?\256Y\335<\216^\327=\217\270\300>\303[p?M\371j> \0165?\230\004T?\361\263\021?n\032{?\361\262\231=\005*\216>eaM?\020q\"?\027wm?\365\212\211>\344/I?\233N,?\212Sa?\262\374\327>\370\276y?l=\303=\230\240\260>\372cg?.\363\261>/4h?x\254\254>\273\340d?F\375\301>\256\372p?$;b>\006@0?\267\237[?\177\250\371>\310\327\177?\202\306 ;\211a <\241\317\036=R\247\030>\212\345\001?\234\361\177?M,f:\220\370e;\372)e<i\365a=T~U>w\373(?\320\301e?\374k\274>0)n?\237\304\204>\343\255D?\246L6?M\356Q?W\035\027?\334\246w?&7\001>\374\321\341>/q|?-\212`=\014;T>\225>(?\210\261f?dp\266>\310\334j?]#\233>\343BX?\312G\006?:b\177?:e\035<$\342\033=j\363\025>4\374\377>\000\000\200?\236\255f2\236\255f3\235\255f4\232\255f5\215\255f6Y\255f7\211\254f8J\251f9M\234f:]hf;\376\230e<Qab=R\336U>e3)?\376ye?\0344\276>\324\026o?$\263|>\331V>?FGC?vF9?0\276L?\032\372#?\242\306k?\322\002\225>\\IS?f\235\023?\010\375y?\201\332\273=b\237\252>\263\206c?Vt\312>\337\314t?\033[+>e\256\016?\331\241|?\371\263T=P\250I>\341\361!?\376\376m?\356\346\205>\030\304E?\323\3623?f\325U?b\342\014?\372g}?\322R$=.\273\035>fo\005?\326\211\177?\267\346\353;\3643\352<\334\201\343=\352;\312>9\265t?B\264,>\224\223\017?~5|?\246\010o=\224\025a>\330\233/?\237\225\\?\360 \364>\022s\177? \240\014<\"k\013=J\254\006>+\354\351>\226\030~?\n\345\361<\202\300\352=\362\327\317>\364\360v?\276\317\013>\333q\361>%,\177?\250+S<\344rP=6\327E>\372\235\037?oap?\227\251j>\371\3424?\006LT?\025\370\020?4\200{?\275q\215=\355\254\203>k\237C?\253\2148?\240\010N?\372\332 ?\031\"o?\240\026|>}\007>?~\341C?\307\0008?\244\376N?[\177\036?\236wq?\357R[>/Y,?\343Da?\314U\330>\263\332y?\001\361\277=\321\363\255>1\264e?\223\302\274>\312Vn?f\212\203>\335}C?\201\3238?#\213M?\006\014\"?7\343m?\313\245\206>\233yF?\027e2?mQX?\256\037\006?\000j\177?W\250\025<aJ\024=\000\354\016>\253\362\365>\365\232\177?\362\306\311;\336\210\310<-\240\303=\200\360\260>n\225g?R\263\260>\225og?)\250\261>[\006h?\261\326\255>\203\241e?I9\275>\357\224n?^\335\201>\344\331A?\204><?\214JG?C\2260?;\035[?\246\221\374>:\364\177?\nR<:h/<;\022\245;<\350~9=]\0301>\260w\022?\315\253z?\255\371\246=\225\\\231>^\331V?\360$\n?`d~?M\205\314<(j\307=a\377\263>\242oi?\347\231\244>A^_?G\307\343>\213\343|?\307\261D=\274?;>1\002\031?J:v?lc\026>BM\000?\243\377\177?\231\205\2727\211\204\2728J\200\2729No\272:k+\272;\245\034\271<\321\355\264=\350\361\244>\372\234_?\361P\342>\337\216|?\033RY=W\312M>\353n$?xBk?\367z\230>\255#V?\n\020\014?\370\271}?!7\020=@#\013>\332v\360>\244\016\177?ixp<\341\360l=\021<_>\244\221.?Y\035^?}3\353>hO~?q\336\326<\253;\321=\\\333\273>\204\334m?\320\323\206>3\245F?\366\0042?@\350X?\006~\004?G\257\177?\001?\241;\340s\240<XO\235=\013:\221>H\021P?\307\324\033?\264\345s?\035}8>\027@\027?\257\215w?\212\257\002>\264\003\344>\317\360|?+uA=\rR8>\212$\027?\250\241w?\374\204\001>SF\342>h\214|?\210\353Y=vSN>\333\300$?\305\344j?\004\356\232>\316\030X?\277\273\006?\245J\177?\"\3324<\024\3332=\276\013+>\222y\016?\351\271|?\305\327N=\305eD>\306\272\036?\306>q?ax^>!#.?m\275^?\274\202\347>F\250}?D\217\024=\345+\017>\301N\366>\017\242\177?X\235\273;Z\212\272<\357J\266=\033\021\246>\006h`?\213\216\335>\253]{?z\233\221=JA\207>\250\014G?\352\0371?\022KZ?\205\234\000?\201\376\177?\347b\2778n^\2779\214L\277:\023\005\277;\001\350\275<\376\200\271=\210\263\250>\360:b?\227v\322>g\346w?\222\377\372=\215<\334>\371\000{?\014\302\234=i\302\220>\211\251O?\266\327\034?j\000s?\rjE>\364Z\037?c\243p?\027\ng>J\3512?+\200W?\213^\010?\322\347~?\352}\213<\332\035\211=v\337\177>\272\357??\210 @?\340\276??\376\201@?\374\372>?\340\005B?\341\343;?\256\364G?w\031/?\217V]?\364\277\357>\356\367~?\223\200\203<,d\201=\321nr>d\t9?D+M?\310\363\"?[\351l?3R\215>\300\240L?\245@$?\005wk?R\032\227>\224\004U?\326\017\017?\220t|?\350\267_=\311\177S>\320\320\'?\331:g?\274\374\262>\t\325h?\271\221\250>\334#b?1\004\323>y\030x?~!\365=Z\312\327>1\257y?{\035\305=\256$\262>URh?\003\350\253>@`d?O%\305>-xr?\366\013M>\354\374#?w\303k?.\030\225>4[S?\360n\023?a\031z?\226y\270=\266\333\247>\010\247a?\371\377\325>\376\033y?\345\220\326=\023\026\300>\010\013p?\216eo>\334m7?q\376O?\345\003\034?\227\274s?S\320:>z\273\030??qv?|6\023>)\031\374>\307\360\177?\236\204s:\265Js;~cr<}\315n=Q\341`>\214~/?(\301\\?\314$\363>\267Z\177?\336\335$<*5#=^\264\034>J\271\004?\276\246\177?\rE\262;\305L\261<kv\255=C\305\236>o\022[?\036\317\374>\321\365\177?\305\343\":\334\311\";Xb\"<U\306 =\315v\032>\004*\003?\364\327\177?\225\026 ;y\262\037<\374#\036=\365\010\030>Lv\001?s\367\177?\000\314\010:\272\271\010;\264p\010<\324M\007=\241\325\002>m<\344>*\375|?Qq>=\213\2265>\375b\025?q\332x?tO\336=\267-\306>\257\360r?\037LF>\252\345\037?L\032p?\263\217n>\322\3736?.\303P?\271\025\032?R^u?e\n#>\326\024\t?\035\266~?\354\034\244<D\323\240=+2\224>K\232R?-c\025?Q\332x?=S\336=\2560\306>\006\362r?\3438F>\340\331\037?\t&p?(\353m>\330\2436?\340YQ?\003\230\030?\225\214v?\231\241\021>\367\326\371>\r\332\177?v\265\027;\216[\027<\231\365\025=\034x\020>\215,\370>\301\302\177?>\301t;=\327s<36p=\331\037b>\31100?\255\266[?\364$\371>\000\321\177?\215\335;;\260S;<c/9=\n\3200>\\H\022?\372\306z?\334\267\243=h\241\226>D\241T?\027\027\020?l\364{?\255\315~=\340\363n>I17?%gP?~\375\032?\036\236t?4\005.>or\020?\374\305{?\340\004\205=<\302x>\002T<?\016\"G?`\3600?\351\223Z?S\235\377>\332\377\177?7#\0307\335\"\0308s!\0309\315\033\030:5\005\030;\356\252\027<\202C\026=O\300\020>*\224\370>\355\310\177?4\035\\;\362_[<\375oX=*\000M>\331\365#?j\313k?\236\342\224>m.S?u\343\023?\312\321y?X\000\301=(\320\256>\260@f?\032C\271>\'tl?Un\220>[`O?\217\215\035?}Zr?\210\264N>\305\372$?\013\242j?A\253\234>XuY?\313\364\002?\013\335\177?\017\301\013;\304t\013<\344D\n=\376\231\005>MW\350>A\320}?\336\275\n=\312\n\006>\355\375\350>\241\356}?,F\003=<\"\376==\231\336>Y\244{?.\025\211=p\320\177>6\350??\214/@?\305\240??\350\275@?\375\201>?\035\363B?\370\3669?^\200K?#\356&?\300Qh?\316\353\253>\275bd?\257\025\305>\375pr?\316rM>\212:$?\360}k?\336\353\226>z\336T?\371t\017?UD|?\311nk=\200\346]>\216\320-?\0214_?\207\302\344>\372\031}?\347g7=\2131/>Z8\021?\337]{?3\225\221=\350;\207>\223\007G?1+1?\3009Z?`\315\000?m\375\177?\372\301$9Y\273$:\331\240$;\3726$<\241\221\"=\326\035\034>\276P\004?\202\265\177?\357\317\224;\355\"\224<)u\221=l \207>\242\355F?\274d1?!\341Y?\303\306\001?a\363\177?Q\354I:\200\304I;y%I<J\255F=B\n=>8$\032?~Ru?\350\267#>\373\212\t?\274\223~?\006\037\265<\337\035\261=\225\314\241>3V]?\020\302\357>3\370~?\226^\203<FC\201=U5r>\035\3538?.aM?\227q\"?\206vm?\326\216\211>|3I?eF,?\350^a?\210\267\327>F\251y?|\321\305=\371\265\262>b\252h?\365\250\251>g\341b?7u\316>\224iv?\003\250\023>\326\272\374>N\365\177?\255\023+:\030\367*;\353\204*<\230\276(=\355\312!>\265:\010?\035\361~?=\342\206<\260\251\204=\204#x>O\002<?\254\273G?u\231/?-\231\\?b\014\364>)q\177?\277\207\016<TJ\r=\244j\010>\213|\354>9\203~?<H\275<\236\350\270=\2676\250>\222\345a?\314\201\324>\\\234x?B\241\345=\005\342\313>\317cu?\344\271\">\361\335\010?\202\305~?\301}\234<u\200\231=\034\377\215>5;M?R\315\"?F\023m?\2524\214>\257\237K?/\244&?c\253h?i\242\251>\374\334b?\201\220\316>!tv?\317\013\023>V\334\373>\336\356\177?\003\t\211:V\344\210;\357Q\210<6\r\206=\367\215z>\222?=?\223bE?\332\3064?tzT?\246}\020?6\300{?t\267\205=\337\370y>Z\363<?\032\364E?\006\2123?\335~V?\022\032\013?\377\022~?\241\245\364<@W\355=\353\325\321>\331\254w?\223\335\000>\375K\341>QQ|?\372Gh=\322\033[>\2539,?\201pa?dL\327>a\207y?\314\327\311=9\363\265>\235\224j?\301\004\235>\255\272Y?\2572\002?\255\354\177?\274\214\232:\025^\232;\353\243\231<@\302\226=9\251\213>>!K?\005\316\'?S>g?Q\346\262>\212\307h?\"\352\250>\"`b?\022\222\321>O\224w?\210L\002>(p\343>8\320|?#hI=\330\200?>w\260\033?5\005t?\177\2646>6\033\026??]x?T\016\355=\343\235\321>\230\230w?~\014\002>\244\020\343>\304\272|?x\242N=\3325D>:\235\036?\030[q?K\347\\>\264?-?+\002`?\377\362\337>\277\374{?\263\311|=\330/m>p?6?\264\004R?\363\343\026?\035\320w?z\233\375=\3443\336>\276\211{?&K\214=\335\256\202>\253\247B?y\224:?\214aJ?\327\215)?\n\005e?.\030\301>\344\212p?\317bh>\000\2463?\302QV?\336\223\013?\326\347}?\272\361\004=\027\241\000>p\361\340>x;|?d\225m=\205\315_>\230\343.?\254\245]?\256\361\355>\374\271~?\2142\242<l\374\236=\332\244\222>AIQ??\302\030?\003lv?\374\203\023>\214\207\374>\365\363\177?\024\255@:\323\210@;\006\370?<6\270==\236\3564>\203\366\024?9\"y?4\324\325=\332\200\277>.\300o?~|s>\031\2279?w-L?\346S%?\220:j?\234[\237>K\204[?qE\372>.\337\177?]5\003;\035\362\002<2\346\001=*\217\373=\350\250\334>\022\037{?!$\231=\233\260\215>1\365L?\000v#?\027Zl?\350\036\221>\311\371O?\210\017\034?e\262s?\310c;>\r\031\031?d(v?\326k\027>\275\007\001?\301\373\177?\320\330\2079\315\317\207:\307\253\207;\371\033\207<\205\341\204=\265\204x>\\4<?\251]G?\250k0?\316][?g!\373>J\350\177?\000\241\275:\304Z\275;\246B\274<\026\357\267= j\247>\236Xa?\313\335\327>K\265y?\334c\304=\272\216\261>\307\366g?\355;\256>V\342e?\001\235\273>B\273m?\004\270\207>p|G?\366&0?x\305[?%\320\370>Y\314\177?\376qN;\202\313M<\3045K=\337 A>:\264\034?R s?\'\237C>1@\036?\222\263q?\264\377W>\324o*?v\334c?\366]\310>\371\350s?\302M8>\313!\027?\244\243w?Hg\001>\357\031\342>\021\202|?Bo\\=L\222P>\310\026&?\352Ti?\334I\245>m\333_?F\333\340>\0266|?\353\343n=\"\365`>\251\211/?\250\260\\?h\204\363>.d\177?\ts\033<w\371\031=\264/\024>\320{\375>\253\371\177?\027\233\3129\014\207\312:\3606\312;z\367\310<]\t\304=\222E\261>\335\311g?\205_\257>O\233f?\371\376\266>j.k?Y\001\231>\026\220V?\201\353\n?\005#~?\r\301\354<i\351\345=\373\031\314>\214zu?\035l!>\322\371\007?\213\001\177?Kx}<o\214y=GXj>\347\2664?\276\224T?48\020?\265\343{?\267l\201=\277}r>@\0219?A\035M?\216\025#?f\304l?\235M\216>\t\201M?\177$\"?$\311m?\311X\207>\317\"G?\262\3560?{\226Z?\310\216\377>\316\377\177?DJH7\247IH85GH9j=H:B\026H;\337yG<$\014E=i\221;>\3715\031?\250\021v?z\273\030>\257\363\001?\303\360\177?\236\306s:\225\214s;\341\244r<\361\014o=^\031a>\370\235/?w\222\\?83\364>\303t\177?B\361\n<\236\303\t=o!\005>\375\244\347>\317\256}?\232\364\022=\334\256\r>\254(\364>\312s\177?\201\351\013<\243\267\n=\373\004\006>[\365\350>\026\355}?H\247\003=\374\327\376=\322!\337>\264\307{?\262\317\204=\256ex>d$<?\260{G?\242(0?\364\302[?\223\336\370>(\315\177?\3648K;\241\227J<R\026H=$P>>`\361\032?S\250t?]p->\031\020\020?\357\367{?\375\363}=:5n>y\3136?\034\026Q?\001D\031?\227\006v?\315^\031>0f\002?\372\350\177?\216 \270:V\336\267;7\326\266<\215\301\262=U\'\243>\216S^?C\364\351>\373\031~?\"5\361<\372\032\352=OX\317>\260\300v?\315\234\016>p\200\365>\311\221\177?\274\016\334;i\224\332<a\277\324=\260\245\276>\003Qo?W\212y>\275\272<?\275_F?\004\2362?\223\367W?*\027\007?\3466\177?\225{H<\220\007F=\225t<>\271\305\031?%\237u?YR\037>\200\210\006?EU\177?2I*<\034\204(=B\225!>\375\025\010?y\372~?\316=\202<\267+\200=~Lp>\235\3507?\344(O?\363\026\036?t\332q?\263\326U>\365.)?\264\177e?\342\017\276>/\004o?\356\265}>\247\331>?gGB?k\\;?\025\361H?\004\336,?\271\213`?H\267\334>\t#{?\r\252\230=\301H\215>I\230L?\350T$?\n`k?\236\264\227>\252\202U?\341\277\r?\315\013}?>\336:=\303W2>9H\023?\3150z?r\256\265=m\220\245>\\\r`?\322\257\337>\333\353{?=p\200=^\304p>,(8?\232\271N?\200)\037?\262\323p?Zad>\367q1?\264\314Y?\036\000\002?\376\357\177?\344\006\200:\301\315\177;%\316~<\256\327z=\017{k>ET5?\377\217S??\345\022?\330kz?!\241\256=3\275\237>\325\315[?*\240\370>\236\311\177?%XY;\237\237X<h\302U=\226\232J>\202\204\"?$bm??\032\212>0\264I?\370\036+?S\362b?\227\014\316>\352@v?z\001\026>\013\010\000?\377\377\177?\ta\2014\007a\2015\377`\2016\336`\2017[`\2018P^\2019$V\201:x5\201;\n\263\200<\334Z}=\021\257m>\251\2036?\303\220Q?J\014\030?\306\366v?<y\013>\010\364\360>\230\035\177?p\237a<\n\204^=umR>\204/\'?\363\001h?S\363\255>\340\263e?\225\304\274>\330Wn?\"\203\203>\314vC?i\3428?\250pM?%L\"?\276\236m?~{\210>\2133H?\337\213.?\276%^?\027\002\353>XG~?\324\330\332<$\000\325=\375\330\276>*ko?F\036x>\233\377;?\275\300G?\030\216/?\021\252\\?\226\252\363>\342g\177?\024\304\027<0\\\026=.\327\020>\367\264\370>\320\312\177?\264\225T;+\345S<\235\'Q=\202yF>v\001 ?\212\376o?v\024p>\336\3127?\317\\O?[\226\035?\\Rr?\271(O>\000@%?\300Qj?\232\301\236>\250\017[?\356\336\374>5\366\177?\367\244\034:\001\215\034;E-\034<(\260\032=\241\330\024>\252k\376>\201\375\177?\252\246\0379q\240\037:\216\207\037;%$\037<m\230\035=(\210\027>\256\033\001?\027\373\177?,*\2359\034\036\235:\345\355\234;\177-\234<D3\231=y\275\215>\257\000M?[Z#?\255xl?\253O\220>\235EO?\331\317\035?\000\035r?\207\"R>\\\003\'?\3477h?@\224\254>\364\320d?\267`\302>\264*q?^\224_>j\303.?\303\324]?\312\335\354>\347\221~?\205\006\266<\033\373\261=t\203\242>F\334]?\275\261\354>J\213~?\242K\271<\257\032\265=\327\026\245>;\267_?\372\263\341>\030j|?,Cb=\201\303U>\307#)?\026\216e?\240\264\275>\014\325n?\300!\200>\273!@?w\274??\312\206@?Q\361>?\346\030B?\234\274;?\025>H?\024t.?QH^?\2036\352>S%~?|\236\353<\231\327\344=\202E\313>\265#u?|e&>\213[\013?\005\374}?a\365\377<\013\366\367=t\360\331>bWz?$\023\261=\265\303\241>\253O]?*\350\357>\003\375~?\177\373\200<7\347}=\n*n>}\3056?[ Q?\n*\031?\r\033v?\3260\030>T\222\001?\037\366\177?\000\r\036:\233\364\035;%\223\035<.\017\034=\006\035\026>\204\033\000?\364\377\177?\227M=6tM=7\350L=8\270J=9\371A=:\376\036=;H\223<<\245g:=\371\3531>\357\001\023?\332Zz?\372\250\260=\341k\241>\344\016]?na\361>F*\177?\270\007U<\241BR=\213wG>\306\234 ?\272ao?\273\241x>KC<?\215AG?L\2520?\311\376Z?\346>\375>j\370\177?\231\272\3629\324\235\362:\334*\362;\262`\360<\007S\351=\377\275\316>\253\205v?\016\010\022>\205i\372>\307\340\177?\307\253\371:\0072\371;\342L\367<\267\325\357=\237\277\323>\316Yx?\337u\355=p\355\321>S\265w?\306^\000>\030\216\340>7#|?qws=\262\376d>\007\3111?\265EY?\323y\003?\254\317\177?U*A;\224\230@<\377T>=\333|5>hR\025?\201\345x?\035\001\335=\300\'\305>Lyr?\354\373L>N\363#?F\316k?\\\317\224>M\036S?Y\r\024?\246\267y?0\034\304=\313T\261>9\323g?\317\"\257>\002uf?h\364\267>z\271k?o[\225>N\223S?\233\334\022?\360pz? \005\256=\301;\237>:l[?\006\317\372>\r\345\177?E\202\327:\216\'\327;\350\275\325<;*\320=\246\001\273>\344gm?\360\362\211>\365\217I?Ur+?\221\201b?[\304\320>\014Iw?%\260\006>\333\361\351>\221\031~?ti\361<6L\352=I~\317>\032\317v?\314\306\r>LK\364>\371v\177?\245\275\010<}\231\007=I\034\003>\227\245\344>\316\023}?\323\3518=\304\2200>\354\036\022?\214\336z?\030\344\240=[@\224><\246R?UD\025?\337\356x?\001\346\333=\226I\304>i\022r?\217\271R>R\\\'?\367\312g?aX\257>\317\226f?\323\033\267>\333>k?+\223\230>>7V?Y\333\013?\252\315}?\310`\013=\244\242\006>\363\335\351>!\026~?\267\032\363<\331\343\353=V\270\320>\233Dw?S\362\006>\\S\352>9*~?\2434\351<\034\221\342=\213\200\311>\373et?\27161>\213\213\022?Q\240z?\301Y\250=\004\203\232>$\304W?e\244\007?d\026\177?G\307h<\237xe=\217\235X>\376\312*?\016cc?\346Q\313>\317(u?\306\032&>\027)\013?\306\r~?L8\367<_\302\357=\317\260\323>\257Tx?\013\020\356=\320c\322>\270\337w?\356\307\373=\271\323\334>\335*{?\022\271\227=\227{\214>\305\337K?|\014&?*ai?7\371\244>-\242_?\3401\342>\247\207|?\234\023[=\363[O>~^%?3.j?\255\255\237>\'\302[?\'\343\370>i\315\177?\2144J;\325\224I<\351\031G=Ul=>\014b\032?\300\037u?g\237&>\240\202\013?\017\356}?\032j\003={e\376=\312\313\336>\200\261{?\215~\207=l\017}>\215\205>?)\354B?\205\005:?\377eK?Q,\'?\337\005h?\326\331\255>\207\243e?w,\275>?\216n?\230\013\202>j\007B?\265\340;?\235\372G?\037\014/?0j]?jM\357>1\351~?\326\317\212<\260u\210=\017\274~>\241]??\"CA?]s=?F\377D?\221\2355?\204\025S?)$\024?R\251y?\024\320\305=\327\264\262>\263\251h?n\255\251>k\344b?\222b\316>[bv?\345\022\024>\335R\375>\326\370\177?4.\3459\216\024\345:\020\256\344;\203\025\343<\t\312\334=\215\374\304>ier?c\030N>\223\235$?7\rk?\232\337\231>+BW?\327\007\t?\313\271~?\343J\242<\314\023\237=\231\270\222>\036ZQ?d\227\030?\017\215v?\210\232\021>\332\314\371>\220\331\177?\355\250\031;\261L\031<~\335\027=\016<\022>\324\263\372>\360\343\177?Oj\340:\362\007\340;\326\177\336<\306t\330=\036\224\301>\221\307p?[\014e>\224\3201?\3669Y?\230\232\003?\014\314\177?\235\244O;2\374N<\306^L=S,B>\206Z\035?w\211r?\211\024L>Zh#?4il?\212\270\220>\364\240O?\021\355\034?#\355r?\030\177F>\342\004 ?\036\373o?^Dp>M\3447?l0O?P\004\036?\365\353q?\204\335T>\233\235(?z9f?/q\271>\226\215l?\330\301\217>\216\311N?<\002\037?\326\371p?\017Gb>\254F0?\260\225[?\356\341\371>\224\332\177?\260\233\025;BD\025< \350\023=\331\220\016>1o\365>^\220\177?\320\342\336;\264^\335<Oc\327=P\274\300>\236]p??\337j>\006\0005?\365\033T?\220v\021?(<{?j\244\225=P\265\212>\246BJ?\234\325)?\210\247d?\204e\303>9\247q?,\257X>(\325*?vUc?Q\246\313>rKu?>\037$>;\321\t?{~~?\032\240\277<\227$\273=\310\n\252>>#c?\312\335\314>Z\311u?V\345\034>B\333\004?\251\241\177?Qi\274;\373S\273<]\013\267=5\257\246>\271\326`?\007\362\332>\365\242z?\324\010\250=a?\232>q\216W?~7\010?\360\361~?my\206<RD\204=\002sw>:\247;?\371eH?\356\031.?\260\312^?24\347>\'\231}?\010E\030=\347\233\022>\265<\373>Q\351\177?\226j\265:N*\265;\345)\264<\2153\260=\260\n\241>\356\306\\?T\003\363>VW\177?p:(<=\200&=\224\273\037>\361\320\006?)F\177?\201P9<\35377=\333\005/>\233\033\021?Jm{?\212\271\217=p\243\205>\245\203E?\025\1774?\201\360T?%E\017?L[|?~\333e=W\365X>\234\375*?7\037c?\277\366\314>P\323u?\252R\034>tu\004?z\260\177?\241\332\236;{\025\236<\207\010\233=\035L\217>\033bN?I\000 ?\267\377o?\370\003p>\034\3027?\024lO?xp\035?Mur?\0245M>\221\025$?\266\247k?\001\323\225>\265\366S?d\330\021?/\006{?\320!\234=\250:\220>F3O?B\375\035?\222\362q?W\177T>\215f(?+\177f?S\263\267>\310\224k?UR\226>\024`T?<\303\020?\016\234{?a\025\212=\377\305\200>f\305@?\323r>?\271\020C?\371\2709?n\360K?\366\344%?\020\220i?\r\304\243>\333\304^?\276V\347>\324\237}?\330\241\026=\267\027\021>~\021\371>\364\317\177?!\r@;\r}?<\036@==\242\2014>\377\257\024?\035Py?xe\320=\3260\273>J\201m?,E\211><\357H?;\342,?\317\205`?\370\332\334>\332,{?\313{\227=bG\214>\235\260K?(|&?\240\333h?\216f\250>Y\006b? \271\323>\217Wx?s\271\355=V!\322>\367\307w?\221\217\376=k\353\336>\260\271{?J\201\206=\256W{>k\246=?\024\235D?\264p6?\n\261Q?\364\271\027?<4w?V\346\007>N\272\353>\te~?\2171\314<\227\032\307=L\277\263>\205Ii?\341\224\245>\201\020`?\361\234\337>\026\347{?\n\004\201=\320\306q>\324\2608?\244\310M?\301v!?\254\200n?[i\202>\212cB?\031\";?\020]I?-\347+?\031\342a?\016\227\324>\224\243x?\242\307\344=\0339\313>\231\036u?N\260&>\007\216\013?\363\351}?\323l\004=\315$\000>17\340>\300\r|??\253x={\222i>}K4?\373DU?zd\016?m\303|?O\206L=\352OB>\234p\035?,ur?\3576M>\255\026$?u\246k?n\333\225>\262\375S?\r\306\021?d\020{?\327\347\232=_0\217>\253IN?\033< ?\254\303o?\262Ks>\177}9?\177[L?0\346$?\316\271j?\322\014\234>\004\372X?\245L\004?\020\266\177?$\266\223;\257\013\223<\373g\220=W9\206>\232\022F?JG3?\022\352V?\230\367\t?\237r~?\331{\305<\032\271\300=U\226\256>\366\033f?\247-\272>\357\364l?^\003\215>\006ZL?\262\351$?\302\265j?\323\'\234>\027\017Y?\006\022\004?\272\275\177?@i\204;G\340\203<\315\300\201=\241\020s>}^9?\'\223L?2a$?\024Rk?E\022\230>\326\316U?\372\363\014?\340`}?\030\020&=\212T\037>\002\212\006?\366T\177?\275\227*<\005\321(=\325\333!>FF\010?!\356~?\307\\\210<\262\027\206=/\240z>\337H=?\304PE?t\3554?\262:T?\266%\021?\341g{?r`\220=\3352\206>q\014F?\307T3?r\324V?L2\n?!`~?\343\235\316<\317g\311=I\231\265>u`j?\326_\236><\305Z?\320\205\376>\321\375\177?\007\253\0139D\246\013:8\223\013;\037G\013<\006\030\n=\'p\005>r\031\350>\303\304}?\245\220\r=\032\254\010>\215\334\354>\270\221~?\372\035\266<\205\021\262=\372\225\242>\313\351]?fb\354>:\177~?\316A\277<\264\312\272=N\301\251>\321\361b?\273\017\316>$Bv?Z\357\025>u\366\377>\000\000\200??\026\2663>\026\2664:\026\2665*\026\2666\351\025\2667\346\024\2668\332\020\2669\253\000\266:\370\277\265;\346\275\264<\t\301\260=\312\177\241>\230\035]?\342\013\361>d \177?\265\330^<\303\320[=\325\004P>\337\302%?]\270i?\365\271\242>\t\004^?K\310\353>@g~?\345\031\313<\325\020\306=\023\351\262>4\311h??\337\250>\271Xb?\235\277\321>\314\244w?\376U\001>\031\000\342>\006||?\223\347]=\371\341Q>I\335&?<fh?2f\253>\264\nd?\025=\307>%js?lw?>\221\252\033?O\nt?\204j6>\234\353\025?\376}x?p4\351=`\246\316>\222|v?\323\216\022>\n*\373>\235\350\177?\354\002\273:\235\276\272;*\256\271<\301x\265=Ad\245>\037\356_?;k\340>\242\032|?#\214u=\313\323f>{\3132?\211\257W?\342\334\007?\264\010\177?\324\\v<z\250r=JHd>\024d1?%\342Y?\353\303\001?\211\363\177?\376gG:)AG;\022\246F<}=D=\232\326:>w\277\030?*nv?\036d\023>+Z\374>\262\362\177?b\333T:#\257T;q\376S<;@Q=\234\217F>\377\016 ?\376\360o?\020\322p>m/8?\336\254N?\321H\037?#\265p?\031\020f>\336_2?\246YX?\372\010\006?Pn\177?!]\021<\367\022\020=\241\001\013>\340E\360>\251\010\177?\030hv<g\263r=\354Qd>ki1?\347\331Y?\017\333\001?:\362\177?ZX\\:\360(\\;\232k[<U{X=O\nM>\356\373#?\224\304k?\256\020\225>\360TS?@\177\023?u\017z?o\250\271=\323\323\250>\362Pb?j\357\321>\t\266w?$T\000>(~\340>L\037|?\253jt=\363\324e>H?2?\341\214X?_{\005?\313\207\177?\204\370\357;\2406\356<SI\347=\246*\315>\367\347u?`\"\033>\267\241\003?>\313\177?m\333R;\300-R<\204{O=\364\370D>j\025\037?:\347p?\306Mc>\005\3310?\231\267Z?&\323\376>\236\376\177?\322\306\2608\001\303\2609\300\263\260:\304v\260;}\203\257<\325\300\253=oY\235>\r\374Y?\034{\001?:\367\177?jV\014:/C\014;U\366\013<?\304\n=\275\020\006>\266\006\351>5\360}?\325\342\002=Eh\375=\\\r\336>\214\177{?\002\206\215=f\276\203>b\260C?\316h8?\355GN?^@ ?a\277o?\257\207s>\367\2349?\347\"L?\tm%?3\035j?r\036\240>\322\026\\?\272\374\366>\305\256\177?XB\242;\247t\241<\010F\236=\267\n\222>5\305P?\234\020\032?}bu?9\315\">!\353\010?\330\301~?TN\236<-?\233={z\217>\346\212N?A\234\037?#cp?\252\221j>\003\3264?paT?\246\277\020?\357\235{?U\333\211=\305\223\200>p\223@?\315\327>?\014KB?\340T;?\023\377H?\034\276,?d\270`?\201\251\333>\217\327z?\305\272\241=7\365\224>\373=S?\000\273\023?\325\352y?^\005\276=\337c\254>d\261d?{\'\303>\312\211q?\023QZ>\207\305+?1\020b?\316|\323>\244Bx?\246.\360=\266\003\324>Gqx?y\263\352=\346\315\317>,\355v?\365\007\014>\220\303\361>U5\177?\025\nJ<E\214G=\217\323=>\013\243\032?\347\351t?\010\263)>\221\223\r?\271\036}?\351>6=\021#.>%\206\020?\324\273{?\006?\206=\211\344z>\277k=?\346\rE?\005~5?PJS?\352\232\023?\216\376y?\t\254\273=py\252>^mc?\327\021\313>b\016u?\240\235\'>\336-\014?\254\256}?9\375\022=\334\266\r>@4\364>\333t\177?\014\331\n<\321\253\t=;\013\005>!\204\347>\212\250}?\207~\024=^\034\017>b8\366>[\240\177?\003\002\277;\373\344\275<\034~\271=,\261\250>S9b?z\200\322>\353\351w?+\226\372=\367\354\333>\244\352z?\225p\237=\363\006\223>\353\234Q?L\355\027?\001\016w?\240\037\n>2\374\356>\177\336~?\000\035\220<\373\223\215=p\312\203>\022\274C?\023P8?{sN?\264\325\037?0*p?\352\260m>\247\2046?\023\217Q?\230\020\030?\212\363v?V\251\013>\002:\361>\277%\177?\341\206Y<\211\243V=,dK>+\376\"?\001\336l?t\237\215>\337\345L?\325\232#?01l?\2613\222>b\350P?\300\267\031?b\252u?\n\255\036>\207\026\006?\277k\177?W\353\023<w\225\022=\211V\r>\333\250\363>\267g\177?\226\356\027<\351\205\026=\326\375\020>e\354\370>\354\315\177?\264(H;4\214G<\007\036E=\224\241;>7@\031?\225\tv?\2502\031>BG\002?=\353\177?I\016\246:m\330\245;\214\001\245<\264\256\241=\r\353\224>{5S?\033\321\023?-\335y?\231\245\277=\211\266\255>\332\214e?q\274\275>\030\331n?\267\005\200>\267\005@?\222\364??\333\026@?B\322??[[@?\307H??elA?\033\037=?\245\240E?\n@4?\260WU?\2332\016?\264\331|?\036\030G=\266j=>\006a\032?\230 u?\023\223&>Nz\013?\013\361}?\001\256\002=\\\005\375=\351\302\335>\267k{?\017\352\217=%\315\205>}\253E?o(4?2~U?\323\313\r?\251\006}?\253\037<=\302{3>/\006\024?\"\274y?\261\223\303=g\346\260>1\217g?\265\333\260>\224\210g?}\006\261>\001\243g?j[\260>\0029g?\240\010\263>0\334h?\335b\250>\322\003b?\234\310\323>\351\\x?l\030\355=\245\245\321>g\233w?y\342\001>\357\321\342>\210\254|?\013\032R=\037SG>\212\206 ?[xo?\204fw>\305\240;?\001rH?\262\376-?\337\361^?\333K\346>Rk}?8\201#=[\372\034>\326\351\004?o\237\177?^\331\300;\321\266\277<>:\273=z\034\252>\037/c?-\224\314>\334\253u?R\227\036>\211\007\006?\225n\177?\020\030\021<\037\317\017=\217\302\n>\362\351\357><\375~?\005\337\200<\016\260}=\267\371m>\243\2536?\221LQ?\325\271\030?\205rv?\245#\023>P\376\373>\363\357\177?\354c\200:\272C\200;e\206\177<1\212{=\254\027l>\302\2505?\301\002S?\333T\024?\207\212y?<x\311={\246\265> hj?\331,\236>O\236Z?wb\377>\237\377\177?\277\341\3017\231\340\3018\003\334\3019\251\311\301:P\200\301;\313[\300<|\327\273=\354\234\252>\016\205c?\220~\312>&\321t?\252\034+>\326\204\016?\316\264|?\024\026P=\326\203E>\313j\037?\331\223p?\312\344g>\036a3?\245\300V?\001h\n?\327N~?\"&\327<\232\177\321=f\021\274>=\371m?y\016\206>\313\351E?\214\2403?\215ZV?$|\013?c\360}?h\327\002=\341R\375=C\375\335>F{{?\360\t\216=\0200\204>\206\036D?\025\1777?\230\340O?tN\034?\372zs?\202\204>>D\022\033?\221\214t?\365\004/>\003\033\021?\233m{?\305\257\217=\n\233\205>\236{E?\206\2204?\341\323T?\025\221\017?\2656|?)\275n=\345\322`>uv/?(\315\\?4\337\362>\247S\177?\334\344+<.\027*=\001\007#>\206\022\t?\305\266~?\334\311\243<\206\203\240=\361\356\223>\232aR?P\365\025?Wwx?\335\374\351=\025A\317>\331\267v?\370\037\017>\223=\366>\301\240\177?\3027\276;\024\035\275<u\277\270=\374\024\250>k\316a?a\017\325>*\314x?\304\376\337=\t\177\307>S\207s?@\322=>8\242\032?\227\352t?\377\250)>\333\214\r?\221!}?\375\2145=\362\200->\020\033\020?m\362{?\212I\177=P`o>\022k7?F\003P?\320\367\033?)\307s?d7:>BZ\030?\317\273v?1\345\016>\332\350\365>/\232\177?)Q\313;5\016\312<b\022\305=\270\033\262>\341Lh?\216\013\254>\225wd?\336\222\304>\2044r?\376\322P>\033=&?5\'i?\202v\246>\034\257`?\230\341\333>o\347z?\037\323\237=!Z\223>\241\343Q?\2508\027?\025\223w?\331^\002>v\213\343>M\326|?\215\354G=s*>>\261\331\032?<\274t?\364M,>\276O\017?;V|?U\026g=\300\014Z>R\236+?\272Eb?V4\322>\304\316w?\327\303\375=AR\336>\277\221{?\363S\213=j\331\201>\376\325A?\210F<?t;G?\337\2670?!\352Z?W\264\375>\273\372\177?a\234\2509\177\216\250:\001W\250;\235y\247<\035\r\244=\004\351\226>#\334T?/{\017?UA|?L)l=\212\213^>\366-.?\316\255^?9\337\347>\326\271}?l?\020=\366*\013>\024\202\360>\000\020\177?\213\036o<#\241k=\017\023^>\313\351-?\344\017_?\237\231\345>\013G}?\317b,=\200!%>s\200\n?\332F~?\307\026\333<\310:\325=l\007\277>\305\202o?l\325v>\265U;?\210\375H?\242\301,?x\263`?D\307\333>\376\337z?\256\267\240=\353\032\224>\263\206R?\271\225\025?`\270x?\'T\342=\021Q\311>\274Qt?@]2>\314K\023?\245.z?E\360\265=\221\306\245>\2213`?G\312\336>\033\261{?\260\212\207=}$}>4\220>?W\327B?\0101:?\374\026K?\032\346\'?U g?\273\247\263>y;i?J\361\245>\247Q`?E\025\336>\245\201{?GE\215=\233\206\203>,zC?J\3338?P}M?\203-\"?\204\277m?\320\232\207>\373`G?Ad0?\001i[?q\341\372>\313\345\177?\211\224\321:\300>\321;\261\350\317<\337\241\312=d\225\266>\007\362j?m\225\232>\274\322W?\\|\007?\332\037\177?ma_<\301U\\=\211{P>K\t&?\366di?2\340\244>`\220_?=\234\342>?\240|?\255\027U=\247\001J>\000(\"?g\305m?pr\207>\373:G?\355\2700?\207\350Z?q\275\375>\344\372\177?\347m\2439\335`\243:\273,\243;\267\\\242<\353$\237=\017\307\222>vfQ?\002x\030?\036\245v?\3425\020>o\315\367>\315\274\177?\332B\206;\006\266\205<Q\207\203=\261)v>\247\374:?,\242I?qH+?V\272b?vf\317>\020\306v?\000M\016>?\r\365>#\210\177?VJ\357;\377\212\355<\251\247\346=s\255\314>\001\266u?\027\002\036>r\240\005?\\\201\177?\333\312\374;\233\327\372<M)\363=_J\326>R4y?\006\260\323=\222\316\275>z\342n?r\211\177>\253\304??sv@?@\022??\016\330A?KB<?oCG?\032\2460?*\005[?\240\032\375>\235\367\177?\342+\006:M\032\006;\r\324\005<5\274\004=\013o\000>y\246\340>2)|?>\004r=}\267c>\302\0231?\270]Z?\341g\000?W\377\177?P\232(8\224\230(9\244\221(:\344u(;\t\007(<\344M&=R\215\037>\034\261\006?\341L\177?\367\2412<`\2570=G\020)>\247&\r?5L}?r\037+=A\371#>j\267\t?\\\206~?=\273\273<\345m\267=\033\000\247>\023\017a?\226\234\331>V>z?\334\020\264=\345;\244>\377\032_?\240W\345>^9}?_\273/=D1(>\027\221\014?N\210}?\274f\034=\346m\026>\250T\000?\220\377\177?\306\364\3377>\363\3378\037\355\3379\243\324\337:\311r\337;\266\354\335<\242\351\327=Z&\301>\332\221p?\336\000h>yp3?\371\247V?\332\252\n?\3248~?b\001\342<.\305\333=\320/\304>`\006r? eS>)\301\'?ONg?\'\177\262>=\211h?\251\201\252>\334rc?\261\357\312>>\000u?ol(>\317\270\014?\235x}?\207? =\217\372\031>2\323\002?\024\340\177?\232@\377:Y\301\376;Q\306\374<\230\371\364=\001\254\327>\245\245y?\346?\306=\t\017\263>\n\340h?\233I\250>\206\362a?\2102\324>U\201x?\343\317\350=\264X\316>\210^v?\177K\024>N\243\375>l\372\177?@\207\2629\260w\262:{9\262;SA\261<xk\255=*\274\236>\206\013[?s\366\374>\306\366\177?p\225\023:*\200\023;.+\023<\303\330\021=O\247\014>\350\252\362>?N\177?DE1<AZ/=y\330\'>pU\014?\204\237}?f\265\026=\325)\021>u+\371>Y\321\177?\376y:;)\3629<\351\3257=\261\225/>1z\021?-:{?}\341\225=u\351\212>crJ?\257f)?\3147e?i\327\277>\256\353o?_\034q>\304V8?\264gN?\221\362\037?l\rp?\nDo>\003\\7?W\035P?\230\266\033?\347\377s?r\0017>\255L\026?\355:x?\214\026\361=\035\265\324>\302\255x?\212\224\343=rJ\312>R\273t?E[,>\224X\017?\000R|?b\035h=\r\366Z>\017$,?X\216a?\223\226\326>\020My?\000\302\320=\206z\273>\322\250m?r6\210>\377\362G??\035/?\375P]?r\340\357>\n\374~?\320v\201<\021\326~=9\373n>457?b`P?y\016\033?\306\217t?7\326.>>\374\020?\377}{?\333\265\215=\241\347\203>b\330C?\030\0248?\317\334N?\315\322\036?\251\'q?e\277_>\245\333.?R\261]?\177\255\355>K\260~?:\376\246<\305\226\243=\232\205\226>^\212T?\237S\020?\303\325{?\177\034\203=sou>\322\233:?\030TJ?\033\255)?a\334d?\264\030\302>\365\007q?\232\177a>7\327/?\024=\\?Z \366>\203\236\177?\345\257\302;\307\207\301<W\365\274=.\206\253>\324\037d?\360\270\306>G/s?\324\307B>\366\272\035?o0r?=\rQ>\226_&?\360\375h?\214\205\247>\225ka?]j\327>\346\220y?\237\266\310=\344\n\265>a\rj?X\207\240>:e\\?\2608\365>\323\213\177?Z\361\347;\017M\346<\232\323\337=P]\307>kxs?n\251>>r)\033?\355xt?\001#0>\367\326\021?\372\006{?c\t\234=\365%\220>1!O?\376)\036?\206\310q?\306\325V>@\303)?\203\277d?\226\316\302>j_q?\017\252\\>\340\034-?X3`?\240\313\336>u\261{?\335\177\207=\262\021}>\263\206>?\351\351B?9\n:?w]K?h@\'?@\355g?\322y\256>\321\tf?k\241\272>\3413m?@V\213>\272\325J?\371~(?M`f?\363x\270>\317\003l?Gf\223>\360\355Q?E\036\027?0\246w?5A\001>\005\341\341>\272t|?\305\255_=\302vS>\203\313\'?qAg?2\322\262>j\273h?\2079\251>\r\226b?0F\320>?\032w?ni\t>\333\361\355>\002\272~?u/\242<u\371\236=Y\242\222>\035GQ?\257\307\030?\316gv?@\302\023>,\340\374>=\366\177?\323(\034:\003\021\034;\336\261\033<\0337\032=\265h\024>\314\314\375>)\373\177?\236\336\2329\350\322\232:\027\244\232;C\351\231<\376\004\227=\"\342\213>\353TK?\210T\'?\212\324g?C\032\257>\234of?\371\026\270>\352\314k?\205\330\224>\371%S?l\371\023?\034\304y?\362\240\302=\350!\260>,\025g?\244\357\263>Hfi?~\327\244>-\212_?>\301\342>\271\250|?\200\007S=*(H>x\010!?C\363n?\266\240~>\343O??V^A?\326;=?\270iE?]\2674?\374\223T?4:\020?\261\342{?*\214\201=\260\264r>).9?\245\351L?\302\221#?H;l?n\357\221>\302\255P?\304K\032?\0272u?\323\222%>-\315\n?P-~?\216\256\347<*!\341=\300a\310>\237\352s?\34558>\204\022\027?\254\256w?Q\302\000>0#\341>\201G|?\326\251j=\'8]>\247m-?\021\301_?\037y\341>\034\\|?\345\250e=k\310X>\267\343*?\366Ac?U\037\314>\267|u?AL!>\001\344\007?\363\006\177?=\032x<qXt=\346\304e>o62?\304\232X?\357T\005?J\216\177?.\007\343;\202t\341<\022@\333=<\307\303>X\325q?l\037V>IY)?\036Ie?\313i\277>\216\264o?\336\036t>\'\3549?\363\223K?\351\277&?\333\211h?\234}\252>\'pc?\204\000\313>7\007u?~\006(>]t\014?\212\223}?\243\245\031=,\342\023>\225\r\375>Q\367\177?\351\356\n:\017\334\n;\275\220\n<\274d\t=\354\310\004>\360!\347>\234\225}?w#\031=\300i\023>1b\374>\354\362\177?77Q:y\014Q;\303aP<G\273M=\360eC>\323\034\036?\355\324q?T%V>\270\\)?\255De?\346\205\277>\271\302o?\370Xs>w\2049?\372NL?\014\004%?R\227j?\267\362\234>\271\254Y?\313Y\002?\345\351\177? \306\260:\027\211\260;\236\225\257<.\322\253=\340g\235>-\007Z?\321[\001?\236\370\177?\225A\3549T&\354:h\271\353;M\007\352<\302W\343=*\033\312>s\247t?\'}->\216\030\020?\257\363{?\\\373~=\340\033o>\234F7?VBP?\344Y\033?\251Ot?a{2>n_\023?\311\"z?\200Z\267=0\360\246>\000\004a?\277\337\331>iRz?9\253\261=rA\242>\377\253]?\252\314\355>\276\264~?\344\312\244<@z\241=\340\276\224>\177\020S?31\024?\032\241y?\375\311\306=[~\263>\304\"i?\262\223\246>\204\303`?>f\333>e\304z?\034\007\244=\370\343\226>\377\327T?*\206\017?\003<|?\315sm=\323\257_>\340\322.?\'\276]?Ub\355>s\245~?\013\\\254<\255\273\250=\321\324\232>\346\004X?\210\362\006?\360>\177?\345~@<\352;>=\032f5>\270C\025?H\357x?\244\331\333=\341?\304>\342\rr?$\372R>N\202\'?(\234g?\306\207\260>\223Tg?\253V\262>\263ph?\350!\253>\200\335c?}W\310>)\346s?\205v8>\337;\027?\277\220w?\302\201\002>\177\277\343>\324\341|?\364\034E=\233\240;>\231?\031?\021\nv?\177+\031>>B\002?\230\353\177?56\243:.\002\243;\2262\242<v\374\236=\342\244\222>HIQ?-\302\030?\021lv?&\203\023>\\\206\374>\354\363\177?*1A:\267\014A;#{@<?8>=\307b5>\222A\025?\265\360x?|\256\333=\374\035\304>\013\376q?\350\333S>\331\006(?p\367f?\033\257\264>\200\327i?\033\354\241>bm]?\300:\357>\300\346~?\205\005\214<\324\240\211=#a\200>\376`@?p=??\320\202A?>\361<?\036\370E?>\2013?\001\215V?\330\363\n?, ~?\205(\356<\n<\347=] \315>\341\343u?\232^\033>\255\313\003?`\306\177?\351Mf;\271~e<\311Gb=\234\307U>+&)?\002\213e?$\310\275>\'\337n?\205\267\177>\275\333??qH@?\315n??\035!A?\254\270=?\344yD?\024\2746?u0Q?3\001\031?\020;v?\364W\026>(E\000?\265\377\177?>u\2257\220t\2258\326q\2259\356f\225:U;\225;Y\215\224<\273\333\221=fx\207>\230@G?m\2540?\214\373Z?TQ\375>\316\370\177?\0135\3469*\033\346:\300\263\345;\212\027\344<\272\275\335=\226\273\305>\356\274r?\0143I>\277\252!?#Jn?\241\341\203>\220\322C?m 8?0\307N?\017\010\037?1\364p?\305\226b>\"s0?~R[?\376a\373>\256\352\177?\221~\252:\312E\252;Ic\251<\247\342\245=\351r\230>)\035V?\224!\014?W\263}?\330\327\021=t\246\014>\253\251\362>\036N\177?(f1<nz/=\344\365\'>5i\014?\337\227}?\205\225\030=g\346\022>\377\246\373>\031\355\177?\233,\227:\371\377\226;\327M\226<\334\213\223=\237\352\210>\036\233H?\205\241-?Ew_?\0302\343>P\302|?\335\313L=\204\216B>p\227\035?\\Qr?\0047O>\203H%?\327Gj?p\003\237>\233A[?W\302\373>\004\356\177?\334\326\217:s\256\217;*\r\217<\255\215\214=D\350\202>\321\337B?S\037:?*7K?\206\232\'?7~g?\211I\261>N\314g?\264O\257>W\221f?\337>\267>\314Rk?x\r\230>\361\312U?n\376\014?\243\\}?\271\031\'=\220H >\3361\007?\3610\177?\340gN<2\316K=(\252A>\247\t\035??\323r?\334\362G>\376\347 ?\271\024o?^\320|>\245e>?n*C?\r\2039?\204QL?\000\376$?P\236j?\034\304\234>\237\210Y?\341\276\002?\331\341\177?L\036\361:\277\254\360;6\350\356<\221\360\347=\020\254\315>\033\033v?\0060\030>\302\221\001?&\366\177?&\232\035:\345\201\035;\374 \035<6\237\033=\223\265\025>\270\244\377>\337\377\177?\0242\0027\3221\0028\3110\0029\246,\002:\031\034\002;\371\331\001<\203\322\000=\240\212\371=\301\"\333>\007\261z?XY\246=Y\326\230>umV?\034I\013?\213\002~?\216\277\374<A\363\364=.\247\327>\037\244y?#n\306=Q4\263>n\366h?\312\266\247>\226\215a?2\233\326>\216Ny?\257\224\320=pV\273>{\225m?\355\272\210>\266nH?\'\006.?\'\347^?w\213\346>\010x}?\363c =\"\034\032>\253\352\002?\371\335\177?v\n\010;+\302\007<2\242\006=O5\002>\206M\343>y\310|?}KK=p4A>i\300\034?b\025s?\210<D>X\241\036?&Wq?&\037]>s_-?8\325_?y\000\341>\035?|?\377\262l=W\005_>\303r.?9J^?B+\352>h#~?R\220\354<~\273\345=_\366\313>\026lu?`@\">\375\212\010?\023\334~?%P\221<F\274\216=\231\311\204>\255\262D?\\B6?\277\377Q?\246\360\026?\005\307w?\330\253\376=\252\000\337>,\277{?\245\327\205=\3310z>\375\017=?\202\275E?.\0014?\025\276U?\343 \r?\223N}?\037\213*=Nq#>\357Z\t?\354\241~?\324\032\256<\220g\252=\3329\234>%\035Y?\344\352\003?\235\302\177?\345Ru;\315gt<u\302p=\242\233b>\330u0?cN[?my\373>\205\353\177?\233\315\243:3\231\243;\032\310\242<\013\214\237=#\036\223>\246\260Q?\364\272\027?~3w?a\361\007>\206\312\353>\232g~?^\355\312<\202\346\305=\360\306\262>\237\264h?\370e\251>&\264b?\242\214\317>\211\324v?\032v\r>\214\326\363>\026l\177?\036\224\023<\320?\022=\003\007\r>\2515\363>h\\\177?\212/#<t\217!=\0300\033>F\253\003?\'\312\177?\2156W;\240\201V<\254\262S=\254\301H>\340e!?O\222n?\207\357\201>\310\353A?\255\031<?\321\217G?\245\373/?\211\006\\?mZ\367><\265\177?\324\\\225;\212\256\224<\267\373\221=\324\223\207>iZG?\350r0?\326R[?\007`\373>\234\352\177?\311\017\253:\242\326\252;\236\362\251<\rl\246=\003\346\230>\024zV?\002\'\013?\177\016~?\341\334\366<wl\357=\000o\323>\326=x?\r\277\360=4r\324>\017\227x?\031A\346=\370]\314>\n\226u?+\330\037>\234\344\006?\362A\177?\321\200=<\263O;=\333\2762>]\213\023?\021\010z?\353\211\272=T\214\251>\024\316b?\223\354\316>\217\227v?\350\376\020>\357\355\370>\002\316\177?\313\321G;\3235G<\300\311D=gU;>\357\017\031?\211/v?H\002\027>\\\275\000?\320\375\177?4\017\0149i\n\014:C\367\013;\274\252\013<\361y\n=v\313\005>f\240\350>\257\335}?\334p\007=X\366\002>!m\344>\261\007}?M\337;=NA3>5\340\023?\317\323y?\333\302\300=@\236\256>\377 f?\204\r\272>d\343l?\320z\215>\034\305L?\177\351#?I\331k?$\205\224>\021\340R?\305\256\024?\350Py?jM\320=\255\035\273>\374vm?\262\213\211>\2230I?\014M,?\262Ua?\221\357\327>\334\272y?m\272\303=\274\005\261>\212\242g?n^\260>\342:g?\205\374\262>\350\324h?\225\222\250>s$b?\231\000\323>6\027x?oG\365=5\347\327>>\270y?\021\n\304=$F\261>7\312g?B]\257>\342\231f?\034\010\267>\2403k?o\336\230>\371sV?\2017\013?\274\010~?\220\263\371<\032\027\362=$y\325>y\357x?\331\323\333=T;\304>\302\013r?p\030S>\035\224\'?&\206g?:\026\261>\266\254g?\207\034\260>\321\021g?C\005\264> si?\342\202\244>\317M_?D)\344>\000\371|?ju?=d\2026>\372\372\025?tsx?\347q\352=Z\233\317>\032\332v?c#\r>\305^\363>}`\177?\247\037\037<\006\224\035=\027\204\027>\321\030\001?0\373\177?\216\002\2329\371\366\231:\255\310\231;\352\017\231<\3123\226=\262/\213>\220\262J? 