node {
  name: "Train/TrainInput/raw_data"
  op: "Const"
  attr {
    key: "_output_shapes"
    value {
      list {
        shape {
          dim {
            size: 81000
          }
          dim {
            size: 3
          }
        }
      }
    }
  }
  attr {
    key: "dtype"
    value {
      type: DT_FLOAT
    }
  }
  attr {
    key: "value"
    value {
      tensor {
        dtype: DT_FLOAT
        tensor_shape {
          dim {
            size: 81000
          }
          dim {
            size: 3
          }
        }
        tensor_content: "\000\000\000\000\000\000\200?ff\206?\315\314\314=\244p}?\310\320\202?7\211A>\357\347\200?\'\350~?R\247\212>Y&\206?\203\230x?\272r\262>m-\216?9\261r?my\331>\371\322\230?\3635m?\243m\000?\352\003\246?\275.h?\333\311\024?\261\300\265?\356\247c?\233B*?\237\032\310?u\262_?EAA?\0132\335?\216d\\?\'+Z?\0255\365?\303\332Y?\247du?o/\010@J9X?\373\251\211?\230{\027@\306\255W?\2641\232?9\251(@\205qX?\307\201\254?\345\350;@E\314Z?\224\326\300?\306qQ@\257\027_?yq\327?\320\201i@\240\303e?\261\231\360?\002/\202@\202[o?\220N\006@S)\221@\331\214|?\222\350\025@\254\331\241@\252\027\207?\246I\'@\212m\264@[\247\222?\376\244:@\347\025\311@j\233\241?y2P@\325\006\340@\024\301\264?\313.h@\311v\371@\247\025\315?\274m\201@\265\316\nA\325\320\353?M?\220@\337X\032Ai8\t@%\261\240@\261s+A\020d!@\305\351\262@J5>Ax\206?@@\020\307@G\255RA\252\364d@\342J\335@\330\340hA\323\242\211@)\275\365@\276b\200A\226,\246@yB\010A\002\035\215A\323-\311@:\333\026A\315~\232A:\342\363@w\253&ATR\250A\252\322\023A\310\2527A\334E\266A\270\3622AG\301IA\205\344\303A\302\005XA\016\302\\A?\217\320A\001\325\201A\346dpAww\333A*%\233A\300\037\202A\000\236\343AD\373\267A\223\337\213A\250\331\347A\t\031\330A/\022\225A\322\351\346A\036\337\372AYA\235A\325\230\337A\276\232\017B\262\343\243A\245\357\320A+\300!B\344d\250Avv\272A\232\3262Bs3\252A\316u\234At\261AB\257\323\250A\026EpA\302+MB+\365\243A\3477\037A\022`TB\331\205\233A\355\255\226@{\336VB\320\274\217A(\377\254\276\322\314TB\356\027\201A|\227\233\300\302\341NB\264\226`A\325B\n\301\3259FB\300M<A\267J9\301^\026<B\264\361\026A\376A[\301\215\2361B\021\331\343@\315\323q\301\006\266\'B\231\262\234@\260F\177\301\372\356\036B\001\3623@J\365\202\301\325\221\027B\260\274d?\253\337\203\301\256\257\021B\352!X\277-(\203\301/6\rB,\216\031\300$Z\201\301\313\377\tBx\256q\300;\237}\301\333\336\007B({\237\300\350zw\301(\244\006Bl\007\301\300\343}p\301B\"\006B\017\323\335\300\n\277h\301\345.\006B\3660\366\300\220D`\301U\243\006B}6\005\301\374\016W\301X\\\007B\275e\r\301\312 M\301\033:\010B>\305\023\301B\203B\3013 \tB\330q\030\301\025I7\301\263\365\tB^\207\033\301\036\217+\301i\245\nB\276!\035\301\235{\037\301\031\036\013B\356]\035\301F<\023\301\252R\013B\221Z\034\301\210\003\007\301;:\013BC8\032\301\256\n\366\300\r\320\nB\222\031\027\301\364\347\336\3002\023\nB\234\"\023\3015\372\310\300\033\006\tBvx\016\301\343\216\264\300\375\255\007B\\@\t\301b\342\241\300\036\022\006B\327\236\003\301\207\036\221\300 ;\004B\304m\373\300\241Z\202\300T2\002BAR\357\300\2509k\300(\001\000B\203&\343\300\313\270U\300Ya\373A\031\037\327\300:\tD\300\204\222\366A@i\313\300\252\3575\300\301\244\361A\265*\300\300\004%+\300\002\245\354A\343\201\265\300\305[#\3002\236\347AJ\206\253\300\243D\036\300S\231\342A\027I\242\300,\222\033\300\257\235\335A\344\325\231\300\206\373\032\300\021\261\330Az3\222\300O>\034\300\005\330\323A\245d\213\300\303\037\037\300\024\026\317A\370h\205\300Om#\300\001n\312A\212=\200\300\251\374(\300\360\341\305A<\273w\300\234\253/\300\232s\301Ay\206p\300\230_7\300g$\275Ab\317j\300\030\005@\300\217\365\270A\364\207f\300\005\217I\3000\350\264AC\242c\300\000\366S\300^\375\260A\t\021b\300\2757_\30076\255A\033\310a\300cVk\300\353\223\251A\274\274b\300\357Wx\300\314\027\246A\333\345d\300\326\"\203\300V\303\242A<<h\300\332\225\212\300=\230\237A\225\272l\3009\214\222\300r\230\234A\222]r\300\035\016\233\3005\306\231A\326#y\300l$\244\300\034$\227A\370\206\200\300\215\330\255\300#\265\224A \017\205\300/4\270\300\266|\222Ao,\212\300\tA\303\300\304~\220A\261\341\217\300\210\010\317\300\315\277\216A`2\226\300|\223\333\300\362D\215A}\"\235\300\247\351\350\300\005\024\214Ag\266\244\300?\021\367\300\2333\213A\260\362\254\300\'\007\003\301\033\253\212A\332\333\265\300\376\360\n\301\311\202\212A\020v\277\300\320D\023\301\317\303\212A\322\304\311\300\341\376\033\301=x\213A\204\312\324\300m\030%\301\002\253\214A\363\207\340\300\363\206.\301\324g\216A\276\373\354\300p;8\301\005\273\220A\250!\372\300}!B\301E\261\223A\345\370\003\301l\036L\301:W\227A\331/\013\301\\\020V\301\374\270\233A\263\254\022\301k\315_\301`\341\240A,c\032\301\017#i\301\016\331\246A)C\"\301\305\325q\301^\245\255A88*\301A\241y\301\016G\265A )2\301\247\034\200\301\273\270\275A\213\3679\301\321\245\202\301S\355\306A\363\177A\301eA\204\301\210\316\320A\326\231H\3014\305\204\301\206;\333AK\030O\301T\n\204\301 \010\346A!\313T\301r\360\201\301\302\374\360A\201\200Y\301\335\302|\301s\327\373A$\007]\301\001\252r\301\n\'\003B\0071_\301\203\247e\301\004\t\010Bz\326_\301Y\362U\301\202j\014BC\331^\301\336\347C\301c\'\020B\206\'\\\301w\0100\301x!\023B\004\276W\301\361\357\032\301\034C\025Bi\251Q\301UJ\005\301\024\201\026BM\006J\301\364\214\337\300X\333\026B\353\377@\301\237\020\266\300\237\\\026B\217\3156\301\2479\217\300\313\030\025B\026\257+\301\224\305W\300x*\023B\353\350\037\301i=\031\300#\260\020B\366\277\023\301H\337\306\277R\311\rB\364u\007\301\274\272Y\2770\224\nB\016\215\366\300\245\022\217\276\306+\007BD\312\336\300\005\276->\360\246\003B\330\367\307\300,\221\002?\374\027\000B\330V\262\300;\240A?\222\031\371A\302\025\236\300\335sl?\202\036\362A\"R\213\300\252]\203?\374K\353A\2175t\300\360\353\211?\373\251\344Ah\344T\300\320c\213?\222<\336A,\2428\300\266\016\211?\017\005\330A8Q\037\300\332\000\204?\352\002\322A\016\311\010\30059z?{4\314A\327\263\351\277\322.j?|\227\306A\204\237\306\277\002\377X?d)\301A7\351\247\277_\203G?\243\347\273A\354$\215\277\270]6?\306\317\266A\261\322k\2779\002&?\212\337\261A\315\243C\277[\300\026?\337\024\255A/\000!\277\261\312\010?\360m\250A\2628\003\277\377z\370>\031\351\243A\301Y\323\276xH\342>\347\204\237AU\226\247\2764\374\316>\014@\233AG!\202\276i\203\276>]\031\227A\236!D\276\374\277\260>\313\017\223A\017+\r\276\033\215\245>_\"\217A\335\341\273\275\311\302\234>5P\213A\207\307T\275\2268\226>x\230\207A6\246\216\274\230\307\221>`\372\203A\354\271Q<\335K\217>1u\200AS\323!=g\245\216>n\020zAA\341\201=\331\270\217>\220esAxa\256=\340o\222>\177\350lAy\204\327=i\271\226>\377\227fAcA\376=\300\211\234>\342r`A\371\270\021>\223\332\243>\002xZA\313\353#>\361\252\254>F\246TA\000\0206>9\377\266>\236\374NA\245tH>\034\341\302>\004zIA\315b[>\224_\320>{\035DA=\037o>\361\216\337>\022\346>A\363\365\201>\353\210\360>\342\3229A\246\004\215>b\266\001?\r\3434A\334\333\230>\276/\014?\302\0250A9\234\245>\t\306\027?;j+Ahg\263>\353\221$?\277\337&A\246`\302>n\2572?\243u\"AE\255\322>5>B?L+\036A/u\344>\314aS?/\000\032Am\343\367>\371Af?\324\363\025AW\223\006?\035\013{?\335\005\022A\3538\022?R\367\210?\0016\016AJ\376\036?\276\221\225?\027\204\nA\002\002-?Qs\243?\030\360\006A\254e<?\334\275\262?\'z\003AGNM?\327\226\303?\225\"\000A\236\344_?\276\'\326?\335\323\371@\264Ut?r\236\352?\010\242\363@\234i\205?\324\226\000@\360\261\355@\004\312\221?\260\006\r@\237\006\350@Zj\237?\253\275\032@\020\244\342@\rl\256?\307\335)@Y\217\335@\000\364\276?i\214:@\355\316\330@\342*\321?\231\362L@\342j\324@\203=\345?B=a@Im\320@7]\373?m\235w@\225\342\314@\027\340\t@2$\210@$\332\311@\353P\027@\351\273\225@\320f\307@\234!&@\332\264\244@\257\237\305@\236u6@\0270\265@\353\240\304@ysH@\206P\307@\317\214\304@\325D\\@\200:\333@\371\214\305@s\026r@$\023\361@\303\323\307@\004\014\205@\261\177\004A\343\235\313@\364=\222@F\221\021AB4\321@6\273\240@(\316\037A\001\356\330@\206\236\260@\370B/A\2402\343@w\002\302@<\367?A)|\360@w\000\325@\331\352QA\224\254\000Ac\257\351@\322\022eA\0237\013A\316\020\000A\021UyA\021;\030A;1\014A\236A\207A\247 (Ao9\031A=*\222A\221X;A\211\"\'A$/\235A0XRA\266\3335Ad\006\250A\304\222mA\005GEA\255M\262Aq\267\206A\3325UAe\207\273A\263\033\231A%eeA\263\031\303A\245\003\256A\305yuA\341P\310A_X\305A\343~\202A\370f\312A\237\320\336A\261\257\211AN\222\310Ab\343\371A\216\371\217A8\034\302A/\337\nB\005\375\224A9\177\266A\215\242\030B\327V\230Ab\211\245A\322\216%B\262\250\231A\336{\217AO\3470B6\244\230A\245;jA\034\3679B\306\026\225A\230p/A\270-@B\272\363\216A[\325\343@\034:CBIZ\206A*)U@\366\033CB\362)wA\337\242D\276\240$@B\345#^Ae@R\300c\346:B\177\253BA\027D\273\300E\0274B\361\326%Ai\253\373\300\231p,B\024\254\010A~\242\025\301\206\224$B>\025\330@\240\032&\301\320\376\034B\376@\241@\254\2300\301\024\001\026BR\236[@\246}6\301c\307\017B\016R\371?&\0079\301\363`\nBu\273\030?\236;9\301\202\311\005B\341\351\036\277\207\3467\301Y\361\001B\252\241\332\277\260\2355\301q\206\375A\323\007+\300\213\3122\301\221P\370A\251qa\300\'\264/\301\304\024\364A-\227\210\300.\210,\301\206\252\360A\030p\235\300Eb)\301\005\356\355A$\222\257\300\301Q&\301?\300\353A\024G\277\300\340]#\301\260\006\352A\276\322\314\300\320\210 \301\316\252\350A\242r\330\300\316\321\035\301\203\231\347A\356]\342\300\2316\033\301\246\302\346A\333\305\352\300g\264\030\301\211\030\346A\'\326\361\300\177H\026\301\226\217\345A\243\265\367\300\232\360\023\301\003\036\345A\313\206\374\300\017\253\021\301\216\273\344A*4\000\301\356v\017\301Ha\344A\327\272\001\301\370S\r\301n\t\344A\301\343\002\301\226B\013\301B\257\343A\t\272\003\301\301C\t\301\364N\343A\317G\004\301\346X\007\301\204\345\342AQ\226\004\301\314\203\005\301\256p\342A\021\256\004\301x\306\003\301\330\356\341A\350\226\004\301\016#\002\301\377^\341A\037X\004\301\273\233\000\301\247\300\340A{\370\003\301?e\376\300\314\023\340AL~\003\301w\323\373\300\320X\337Ap\357\002\301\300\205\371\300r\220\336AbQ\002\301I\177\367\300\274\273\335A5\251\001\301\275\302\365\300\373\333\334A\240\373\000\3018R\364\300\256\362\333A\371L\000\301?/\363\300\203\001\333AzB\377\300\305Z\362\300F\n\332A\033\370\375\300*\325\361\300\336\016\331Ai\301\374\300>\236\361\300C\021\330AK\244\373\300M\265\361\300v\023\327A\377\245\372\300\"\031\362\300\201\027\326A\034\313\371\300\023\310\362\300k\037\325A\233\027\371\300\004\300\363\3009-\324A\331\216\370\300s\376\364\300\350B\323A\2333\370\300z\200\366\300lb\322A\030\010\370\300\327B\370\300\251\215\321A\370\r\370\300\355A\372\300v\306\320A]F\370\300\304y\374\300\230\016\320A\350\261\370\300\021\346\376\300\300g\317A\271P\371\300\026\301\000\301\207\323\316Aw\"\372\300\213$\002\301nS\316AT&\373\300\271\232\003\301\336\350\315A\n[\374\300\302 \005\301\034\225\315A\343\276\375\300\230\263\006\301QY\315A\270O\377\300\373O\010\301}6\315Ay\205\000\301y\362\t\301z-\315A\305v\001\301o\227\013\301\365>\315A\nz\002\301\010;\r\301gk\315AV\215\003\301C\331\016\301\024\263\315A\207\256\004\301\365m\020\301\007\026\316AF\333\005\301\320\364\021\301\006\224\316A\007\021\007\301ii\023\301\225,\317A\020M\010\301E\307\024\301\355\336\317A|\214\t\301\345\t\026\301\372\251\320A:\314\n\301\322,\027\301T\214\321A\026\t\014\301\262+\030\301B\204\322A\277?\r\301X\002\031\301\262\217\323A\316l\016\301\336\254\031\301?\254\324A\320\214\017\301\265\'\032\3012\327\325AM\234\020\301\300o\032\301\203\r\327A\331\227\021\301n\202\032\301\343K\330A\033|\022\301\313]\032\301\303\216\331A\340E\023\301\232\000\032\301^\322\332A%\362\023\301dj\031\301\312\022\334A,~\024\301\213\233\030\301\002L\335A\202\347\024\301P\225\027\301\375y\336A\027,\025\301\332Y\026\301\275\230\337ADJ\025\3016\354\024\301b\244\340A\334@\025\301JP\023\301@\231\341A4\017\025\301\321\212\021\301\357s\342A*\265\024\301:\241\017\301a1\343A,3\024\301\231\231\r\301\354\316\343A7\212\023\301\177z\013\301^J\344A\327\273\022\301\336J\t\301\000\242\344A%\312\021\301\335\021\007\301\244\324\344A\267\267\020\301\272\326\004\301\243\341\344A\236\207\017\301\232\240\002\301\337\310\344AQ=\016\301pv\000\301\301\212\344A\241\334\014\301\255\275\374\300-(\344A\246i\013\301\350\277\370\300~\242\343A\256\350\t\301\315\376\364\300w\373\342A\'^\010\301d\204\361\30085\342A\216\316\006\301iY\356\3000R\341A_>\005\301C\205\353\300\014U\340A\377\261\003\301\000\016\351\300\256@\337A\262-\002\301_\370\346\300\033\030\336A\214\265\000\301\337G\345\300s\336\334A\305\232\376\300\324\376\343\300\342\226\333A\223\361\373\300\202\036\343\300\233D\332A\022v\371\3006\247\342\300\315\352\330A/.\367\300a\230\342\300\236\214\327A4\037\365\300\273\360\342\300&-\326A\301M\363\300Q\256\343\300k\317\324A\320\275\361\300\251\316\344\300]v\323A\262r\360\300\313N\346\300\330$\322A\033o\357\300V+\350\300\237\335\320A!\265\356\300\216`\352\300_\243\317AFF\356\300_\352\354\300\254x\316A{#\356\300c\304\357\300\000`\315A,M\356\300\344\351\362\300\301[\314A>\303\356\300\324U\366\300:n\313A\032\205\357\300\314\002\372\300\235\231\312A\254\221\360\300\377\352\375\300\003\340\311Ah\347\361\300\031\004\001\301gC\311AI\204\363\300\325)\003\301\247\305\310A\322e\365\300\023c\005\301\177h\310A\016\211\367\300\350\253\007\301\205-\310A\210\352\371\300\025\000\n\301$\026\310AK\206\374\300\005[\014\301\226#\310A\336W\377\300\311\267\016\301\335V\310A\037-\001\301\026\021\021\301\271\260\310A\352\303\002\301@a\023\301\2441\311A@m\004\301G\242\025\301\302\331\311A\301%\006\301\324\315\027\301\335\250\312A\303\351\007\301K\335\031\301T\236\313AP\265\t\301\326\311\033\301\031\271\314A*\204\013\301~\214\035\301\235\367\315A\314Q\r\301>\036\037\301\321W\317Aq\031\017\301*x \301\031\327\320A\035\326\020\301\216\223!\301Ir\322A\251\202\022\301\031j\"\301\241%\324A\315\031\024\301\006\366\"\301\323\354\325A:\226\025\301Q2#\301\004\303\327A\242\362\026\301\341\032#\301\335\242\331A\334)\030\301\271\254\"\301\223\206\333A\3626\031\301$\346!\301\003h\335AD\025\032\301\330\306 \301\310@\337A\237\300\032\301\026P\037\301Z\n\341A_5\033\301\271\204\035\3015\276\342A\201p\033\301=i\033\301\371U\344A\307o\033\301\270\003\031\301\221\313\345A\3061\033\301\301[\026\301\\\031\347A\370\265\032\301Hz\023\301O:\350A\315\374\031\301gi\020\301\025*\351A\251\007\031\301 4\r\301\'\345\351A\350\330\027\301\025\346\t\301\347h\352A\323s\026\301=\213\006\301\241\263\352A\221\334\024\301\223/\003\301\230\304\352A\021\030\023\301\232\275\377\300\376\233\352A\361+\021\301$H\371\300\351:\352A[\036\017\301\200\023\363\300?\243\351A\345\365\014\301t2\355\300\241\327\350Am\271\n\301\206\265\347\300O\333\347A\366o\010\301\316\252\342\300\r\262\346A\201 \006\301\343\035\336\300\002`\345A\363\321\003\301\336\027\332\300\236\351\343A\362\212\001\301w\237\326\300\201S\342A\247\243\376\300,\271\323\300_\242\340A\001Y\372\300zg\321\300\360\332\336A\332@\366\300\035\253\317\300\336\001\335A\024e\362\300O\203\316\300\267\033\333A\200\316\356\300\022\356\315\300\347,\331A\333\204\353\300j\350\315\300\2579\327A\320\216\350\300\232n\316\300\"F\325A\376\361\345\300Z|\317\300&V\323A\007\263\343\300\000\r\321\300sm\321A\240\325\341\300\243\033\323\300\230\217\317A\240\\\340\3004\243\325\300\372\277\315A\025J\337\300\222\236\330\300\333\001\314AU\237\336\300\217\010\334\300_X\312A\016]\336\300\361\333\337\300\213\306\310AX\203\336\300n\023\344\300NO\307A\301\021\337\300\232\251\350\300\203\365\305AV\007\340\300\331\230\355\300\360\273\304A\260b\341\300D\333\362\300N\245\303A\362!\343\300\220j\370\300A\264\302A\317B\345\300\351?\376\300a\353\301A\205\302\347\300\354)\002\301.M\301A\332\235\352\300\016O\005\301\024\334\300A\024\321\355\300\300\212\010\301b\232\300A\353W\361\300\340\327\013\301C\212\300A\201-\365\300\2630\017\301\263\255\300AKL\371\300\324\216\022\301w\006\301A\007\256\375\300&\353\025\301\014\226\301A\324%\001\301\322=\031\301\226]\302A\240\216\003\301;~\034\301\320]\303A\375\014\006\301\010\243\037\301\370\226\304A\376\233\010\301)\242\"\301\264\010\306A56\013\301\354p%\301\000\262\307A\256\325\r\301\035\004(\301\026\221\311A\354s\020\301,P*\301S\243\313A\363\t\023\301gI,\301)\345\315AK\220\025\301:\344-\301\tR\320A\026\377\027\301~\025/\301Z\344\322A!N\032\301\326\322/\301t\225\325A\377t\034\301\016\0230\301\245]\330A4k\036\301\205\316/\301?4\333AV( \301\224\377.\301\267\017\336AC\244!\301\360\242-\301\305\345\340AT\327\"\301\001\270+\301\241\253\343A\230\272#\301$A)\301<V\346A\rH$\301\327C&\301\215\332\350A\324z$\301\303\310\"\301\341-\353AlO$\301\242\333\036\301*F\355A\330\303#\301\004\213\032\301U\032\357A\303\327\"\301\354\347\025\301\215\242\360A\224\214!\301R\005\021\301\200\330\361As\345\037\301\205\367\013\301\210\267\362AB\347\035\301\205\323\006\301\313<\363A|\230\033\301P\256\001\301?g\363A\021\001\031\301u8\371\300\2407\363A/*\026\301\245`\357\300T\260\362A\377\035\023\301\276\367\345\3005\325\361Ab\347\017\301\372\033\335\300`\253\360A\245\221\014\301\265\346\324\300\3618\357A7(\t\3015l\315\300\274\204\355Ag\266\005\301\252\273\306\300\025\226\353A&G\002\301g\337\300\300\211t\351A\233\311\375\300K\335\273\300\262\'\347A\3711\367\300H\267\267\300\t\267\344A\350\330\360\300\001l\264\300\300)\342A\004\316\352\300i\367\261\300\263\206\337A\364\036\345\300kS\260\300R\324\334Ag\327\337\300~x\257\300\232\030\332A\034\001\333\300.^\257\300\031Y\327A\004\244\326\300\224\373\257\300\356\232\324A_\306\322\300\267G\261\300\323\342\321A\350l\317\300\3269\263\300&5\317A\000\233\314\300\242\311\265\300\364\225\314A\335R\312\300a\357\270\300\t\t\312A\267\225\310\300\004\244\274\300\371\221\307A\362c\307\300-\341\300\300,4\305AE\275\306\300#\241\305\300\355\362\302A\333\240\306\300\301\336\312\300q\321\300Ar\r\307\300\\\225\320\300\343\322\276Ap\001\310\300\233\300\326\300j\372\274A\364z\311\300L\\\335\3002K\273A\343w\313\3004d\344\300q\310\271A\353\365\315\300\323\323\353\300iu\270A\202\362\320\300-\246\363\300qU\267A\340j\324\300\202\325\373\300\354k\266A\360[\330\300\206-\002\301P\274\265A@\302\334\300[\227\006\301\036J\265A\345\231\341\300e#\013\301\331\030\265Ac\336\346\300\325\313\017\301\376+\265A\203\212\354\300\276\211\024\301\366\206\265A6\230\362\300\360T\031\301\376,\266Aa\000\371\300\322#\036\301\025!\267A\264\272\377\300I\353\"\301\331e\270A\277^\003\301\232\236\'\301e\375\271A\273\376\006\301b/,\301)\351\273A\314\266\n\301\226\2150\301\272)\276Ay\177\016\301\225\2474\301\236\276\300AIP\022\301Uj8\301\025\246\303A\261\037\026\301\245\301;\301\343\334\306A\026\343\031\301\221\230>\301\025^\312A\325\216\035\301\351\331@\301\325\"\316AW\026!\301\342pB\301A\"\322A2l$\301\343IC\301RQ\326A]\202\'\301cSC\301\332\242\332AxJ*\301\340~B\301\236\007\337A\034\266,\301\326\301@\301\213n\343AH\267.\301\266\026>\301\016\305\347A\323@0\301\257}:\301\221\367\353A\351F1\301P\3755\301\021\362\357A\215\2771\301\331\2420\301\326\240\363A\024\2431\3017\202*\3014\361\366A\230\3540\301\227\265#\301J\322\371AK\232/\301\230\\\034\301\3035\374A\271\255-\301\033\233\024\301e\020\376A\335++\301\315\227\014\301\212Z\377A\016\035(\301~z\004\301,\010\000B\315\214$\301\334\324\370\300\344\030\000B]\211 \301c\031\351\300k\302\377AL#\034\301\225\005\332\300\r\311\376A\330l\027\301\036\323\313\300(O\375AQy\022\301\351\260\276\300@`\373An\\\r\301m\302\262\300:\t\371A\265)\010\301\304\037\250\300\267W\366A\355\363\002\301V\326\236\300\177Y\363AM\231\373\300\007\352\226\300\007\034\360A\306\207\361\300\257V\220\300\023\254\354A\252\317\347\300\300\021\213\300o\025\351Ay\211\336\300\350\013\207\300\316b\345A\267\311\325\300\2452\204\300\271\235\341A\002\241\315\300\250q\202\300\222\316\335AF\034\306\300\007\264\201\300\244\374\331A\014E\277\3000\345\201\300>.\326A\335!\271\300\252\361\202\300\322h\322A\245\266\263\300\225\307\204\300\026\261\316A#\005\257\300\tW\207\300$\013\313AT\r\253\300C\222\212\300\232z\307A\322\315\247\300\271m\216\300\266\002\304A6D\245\300\020\340\222\300s\246\300Aem\243\300\001\342\227\300\230h\275A\333E\242\3004n\235\300\327K\272A\344\311\241\300\t\201\243\300\325R\267A\316\365\241\300a\030\252\300@\200\264A\020\306\242\300_3\261\300\331\326\261Ae7\244\300#\322\270\300\205Y\257A\336F\246\300\211\365\300\300T\013\255A\357\361\250\300\330\236\311\300\217\357\252Am6\254\300y\317\322\300\277\t\251A\210\022\260\300\245\210\334\300\270]\247A\276\204\264\300\002\313\346\300\237\357\245A\305\213\271\300L\226\361\300\360\303\244Al&\277\300\340\350\374\300\203\337\243AwS\305\300\242_\004\301\212G\243Ar\021\314\300\326\211\n\301\223\001\243Ax^\323\300\257\356\020\301\177\023\243A\3667\333\300\013\210\027\301v\203\243A_\232\343\300\257M\036\301\317W\244A\337\200\354\300\3554%\301\370\226\245A\370\344\365\300F0,\301GG\247A!\276\377\300\023/3\301\312n\251A\252\000\005\3010\035:\301\374\022\254AQP\n\301\277\342@\301o8\257A\\\305\017\301\366cG\301j\342\262A8U\025\301#\201M\301g\022\267A6\363\032\301\334\026S\301\217\307\273A`\220 \301m\376W\301(\376\300Ab\033&\301\246\016\\\301\366\256\306A\202\200+\301\374\034_\301\260\316\314A\301\2510\301\036\377`\301\202M\323A\030\1775\301\356\214a\301\271\026\332A\340\3469\301\326\242`\301\246\020\341Ay\306=\301i$^\301\325\034\350A\021\003A\301\020\377Y\301\246\030\357A\252\202C\301\227,T\301I\336\365AB-E\301E\265L\3012F\374A\017\356E\3016\261C\301q\024\001B\306\264E\301\246H9\301{\260\003B\303vD\301\375\262-\301\243\346\005B\374/B\301\2204!\301s\251\007B\244\343>\301-\033\024\301a\357\010Be\234:\301\272\271\006\301T\263\tB!l5\301\312\306\362\300\323\364\tBAk/\301\257\315\330\300\323\267\tB\235\267(\301\007\024\300\300.\004\tB\016s!\301\324\r\251\300\326\344\007B\327\301\031\301@\023\224\300\345f\006B\005\311\021\301E_\201\300\235\230\004B\341\254\t\301w!b\300\206\210\002B\241\217\001\301\211ZF\300\241D\000B\250 \363\300\003K/\300\273\263\373AX\224\343\300\306\263\034\300j\247\366A\031\250\324\300\014?\016\300\001x\361A\327\200\306\300e\211\003\300\3365\354A\323:\271\300\331R\370\277=\356\346A7\352\254\300\356k\357\277\212\253\341A\344\233\241\300^\225\353\277\306u\334ApV\227\300\214\026\354\277\360R\327A(\033\216\300\320J\360\277tG\322A\034\347\205\300o\243\367\277\201V\315A,h}\300\n\324\000\300Z\202\310A\365\362p\300\035\373\006\300\232\314\303A,Zf\300\362\037\016\300f6\277A\215\207]\300\367$\026\300\225\300\272A\030dV\300\021\365\036\300\326k\266A\375\330P\300\246\202(\300\2778\262A[\320L\300\260\3062\300\346\'\256A\3125J\300\324\277=\300\3559\252A\313\366H\300\236qI\300\214o\246A\023\003I\300\313\343U\300\237\311\242A\277LJ\300\247!c\300(I\237Ap\310L\300\2109q\300`\357\233AYmP\300*\036\200\300\270\275\230A?5U\300\215\036\210\300\350\265\225An\034[\300W\250\220\300\371\331\222A\250!b\300\254\306\231\300M,\220A\006Fj\300:\205\243\300\261\257\215A\336\214s\300\013\360\255\300jg\213A\227\373}\300N\023\271\300AW\211A\277\314\204\300\032\373\304\300\236\203\207A\3107\213\300\037\263\321\300\222\361\205A\035D\222\300FF\337\300\363\246\204A\210\367\231\300>\276\355\300j\252\203A4X\242\300\341\"\375\300\216\003\203Axl\253\300\300\274\006\301\366\272\202A\223:\265\300\001b\017\301H\332\202AQ\310\277\300\347\177\030\301Jl\203A\252\032\313\300?\022\"\301\335|\204A?5\327\3000\021,\301\377\030\206A\303\031\344\300Tp6\301\247N\210A@\307\361\300\273\035A\301\226,\213A\243\034\000\301\315\000L\301\006\302\216At\263\007\301#\371V\301)\036\223A\322\240\017\301\\\335a\301yO\230A\023\332\027\301\022zl\301\321b\236AyP \301\014\221v\3010b\245A\210\360(\301\345\330\177\301HS\255A^\2411\301\267\376\203\301\2675\266A-D:\301\205P\207\301\026\001\300A\334\263B\301\254\257\211\301\346\242\312A\002\305J\301\272\350\212\301\247\374\325AAFR\301\372\311\212\301M\342\341A9\001Y\301J\'\211\301z\031\356A)\274^\301\242\336\205\301\353Y\372AE<c\301\325\334\200\301\270\'\003B\317Hf\301#Dt\301\323\316\010B\276\256g\301\224\212c\301\313\362\rB\272Dg\301j\353O\301Uf\022B\376\356d\301\223\3639\3012\002\026B\247\242`\301\236V\"\301\324\250\030B\331gZ\301\215\341\t\3019I\032BkZR\301\264\323\342\300d\340\032B\303\250H\301ov\263\300>y\032B\002\221=\301\355\r\207\300\312*\031B\316\\1\301^^=\300\023\025\027BH\\$\301\253P\354\277m]\024B\335\340\026\301Z\323d\277\252*\021B\1778\t\301\020\372\322\275\331\241\rB\257S\367\300\252\211\010?\346\343\tB2\343\334\300\243\236\203?=\014\006B\034\202\303\300\033\001\263?W0\002By{\253\300b\306\324?\367\277\374A\304\003\225\3003L\353?\340K\365A\025;\200\300\342\317\370?\313\021\356A\365_Z\300;X\377?\330\030\347A&\3057\3007U\000@\237c\340AP\217\030\300\"G\376?\256\361\331A\r.\371\277\344l\371?\256\300\323A\301Q\307\277\312\035\363??\315\315Ag\023\233\277\257&\354?\217\023\310A\374\347g\277\362&\345?\302\217\302A\231\342\"\277\001\230\336?+>\275A\340\'\314\276V\324\330?s\033\270AM\004B\276\265\035\324?\237$\263Ar\203\235\273\222\242\320?\026W\256A\\z\">\257\202\316?\236\260\251A#\270\233>\374\322\315?L/\245A\036z\336>\305\240\316?\203\321\240A\265p\r?R\364\320?\343\225\234AM\026)?\004\323\324?D{\230AF\276B?\013A\332?\260\200\224At\353Z?\272B\341?Y\245\220At\024r?\234\335\351?\230\350\214A\221R\204?F\031\364?\354I\211A\t\200\217?\002\000\000@\365\310\205A\t\300\232?\252\317\006@ue\202A\303<\246?.\204\016@\250>~A\354\035\262?\026(\027@A\355wAY\211\276?\n\310 @%\327qA\237\243\313?\351r+@&\375kA\244\220\331?\34797@\200`fA(t\350?\2360D@\352\002aADr\370?\"mR@\253\346[A\357\327\004@\022\010b@\260\016WA\214)\016@\236\034s@\246~RA\332A\030@E\344\202@\033;NA\2715#@\023\026\215@\245IJA*\033/@\0335\230@\016\261FAx\t<@\344S\244@\210yCAM\031J@\360\205\261@\353\254@A\302dY@\213\337\277@\367V>Ad\007j@qu\317@\251\205<A$\036|@_\\\340@\214I;A\232\343\207@o\250\362@%\266:A\342\220\222@\0356\003AZ\342:A\321&\236@\336\333\rA\343\350;AO\265\252@hK\031A\277\350=A\334K\270@\241\207%A\241\005AA\000\371\306@2\2172AJhEA\212\311\326@\370Z@A\303>KA\224\307\347@(\334NAW\274RAA\371\371@\n\372]A6\031\\A\221\257\006AT\217mA\215\221gA%\371\020A6g}A\335cuA\363\320\033A\027\235\206A*\347\202AF(\'ArU\216Ak\205\214A\211\3502A\272\241\225A\277\244\227A\240\361>A\3459\234A\250T\244A>\030KA\352\310\241A\216\227\262Ag$WAI\356\245Ao]\302Ak\320bA\237A\250A3~\323A\264\310mA\305X\250AK\264\345A\311\254wA\310\320\245A\317\230\370A\010\t\200A\221Y\240A9\321\005BID\203AN\303\227At\024\017B\375P\205A\300\013\214A\000\267\027BC\375\205AT\321zAnV\037B\232!\205A\211\230XA\031\227%B\337\245\202A\330\3012Ab/*B\300\n}A\370\365\nA\310\361,BF\242qA\357\010\306@\204\323-BK_cAI\267r@\301\355,B\362\263RA\362\201\313?\363x*B--@A3\274\263\276q\303&B\253e,A\'\370\376\277\257%\"Bf\370\027A\205\251T\300\327\366\034B\354t\003A\025o\213\300\373\203\027B\300\255\336@3\003\244\300\352\n\022Bu\002\270@\345R\265\300\226\270\014B\354y\223@\022\271\300\300(\252\007B\245\351b@I\205\307\300\257\357\002B9Q$@\204\345\312\300\260\036\375A\313\234\326?\257\333\313\300\035\021\365AH7_?\201;\313\300*\255\355A\315;\031>W\255\311\300\003\345\346Ao\272\375\276\234\263\307\300B\251\340A1\370\210\277\005\261\305\300\270\352\332AbY\312\277\241\356\303\300r\233\325AY>\002\300H\241\302\300F\257\320A+%\034\300/\356\301\300\367\033\314A\027Q3\300\250\356\301\3008\331\307A\351+H\300\035\263\302\300\201\340\303A$\030[\300dE\304\300\342,\300Ahpl\300\216\252\306\300\322\272\274AG\207|\300@\344\311\300\375\207\271A\263\323\205\300\271\361\315\300\033\223\266A\347\t\215\300\210\320\322\300\312\333\263A*\004\224\300\016}\330\300vb\261A\016\335\232\300\312\362\336\300>(\257A\007\254\241\300\203,\346\300\342.\255A\255\205\250\300G$\356\300\272x\253A\360{\257\300W\323\366\300\245\010\252AG\236\266\300\370\030\000\301\003\342\250A\330\371\275\300\201\033\005\301\256\010\250A\217\231\305\300\347k\n\301\352\200\247A/\206\315\300\273\003\020\301]O\247AP\306\325\300>\333\025\301\375x\247AT^\336\300\021\351\033\301\375\002\250AOP\347\300\361!\"\301\252\362\250A\336\233\360\300_x(\301OM\252A\364=\372\300S\334.\301\375\027\254AP\030\002\301\361:5\301PW\256A`5\007\301P~;\301+\017\261A\336o\014\301M\215A\301YB\264A\235\277\021\301\204KG\301,\362\267Ag\032\027\301k\231L\301\t\036\274A\347s\034\301\256TQ\301\350\302\300A\225\275!\301\301XU\301\333\332\305A\263\346&\301\307\177X\301\212\\\313Ah\334+\301\317\243Z\301\316:\321A\362\2110\301d\240[\301Vd\327A\376\3304\301pT[\301\215\303\335A#\2628\301\\\244Y\301\255>\344A\217\375;\301Q|V\301#\270\352A\325\243>\301e\322Q\301I\017\361A\344\216@\301\206\250K\301{!\367A\016\253A\301\337\rD\301z\313\374A#\350A\301s\037;\301\211\365\000Bw:A\301\310\0071\301q0\003B\314\233?\301\207\375%\301\t\t\005B\371\013=\301\013A\032\301\361t\006BG\2219\301\033\031\016\301bm\007Bv85\301\t\317\001\301\201\357\007BR\0240\301NU\353\300\\\374\007B\364<*\301\346\334\323\300\251\230\007B\264\316#\301\307\250\275\3008\314\006B\337\350\034\301,\027\251\300<\241\005BX\254\025\301\022n\226\300\203#\004B6:\016\301\302\332\205\300\244_\002B\207\262\006\301R\346n\300Db\000Bwf\376\300+qV\300\010o\374A\256\256\357\300\2726B\300\024\325\367A\277l\341\300\275\3751\300~\n\363A)\310\323\300\001{%\300\\ \356A\262\340\306\300\255X\034\300\002%\351A\250\316\272\300~<\026\300%$\344Ak\243\257\300\310\314\022\300)\'\337A\035j\245\3000\264\021\300j5\332A\203(\234\300J\244\022\300\233T\325A\340\337\223\3006W\025\300\025\211\320A\331\215\214\300u\220\031\300#\326\313AI-\206\300\"\035\037\300H>\307A\004\267\200\300\276\323%\300p\303\302A\000Ex\300\251\223-\300!g\276A\336\314p\300xD6\300\237*\272Am\362j\300+\325?\300\004\017\266A\263\242f\300[;J\300\\\025\262A\221\313c\300prU\300\263>\256AA\\b\300\342za\300&\214\252A\267Eb\300\202Yn\300\357\376\246A\345zc\300\327\026|\300m\230\243A\344\360e\300H_\205\3003Z\240A\017\237i\300{/\215\300\022F\235A\014\177n\300<\204\225\300\036^\232A\312\214t\300\232f\236\300\303\244\227An\306{\300B\340\247\300\310\034\225A\037\026\202\300D\373\261\300b\311\222A<\340\206\300\330\301\274\300A\256\220A\230C\214\300\022>\310\300\237\317\216A\013C\222\300\224y\324\300P2\215A\031\342\230\300(}\341\300\324\333\213A\315$\240\300RP\357\300i\322\212A\216\017\250\300\266\370\375\300\030\035\212A\337\246\260\300\274\274\006\301\305\303\211A!\357\271\300/\351\016\301>\317\211AA\354\303\300t\177\027\301:I\212AR\241\316\300\215z \301Z<\213A\031\020\332\300\032\322)\301\033\264\214A\2028\346\300\224y3\301\267\274\216A\371\027\363\300w_=\301\355b\221AUT\000\301XlG\301\266\263\224AVp\007\301\367\201Q\301\314\273\230A\177\330\016\301Wz[\301\n\207\235AH\202\026\301\372&e\301\243\037\243A\215_\036\301TPn\301\020\215\251A\007^&\301\260\265v\301\332\322\260A\313f.\301\252\r~\301$\357\270A\342]6\301\277\003\202\301\025\331\301A\013\">\301\265&\204\301=\177\313A\310\214E\301 D\205\301\021\306\325A\272rL\30132\205\301\313\206\340A~\244R\301\376\313\203\301\350\216\353A\013\360W\301\014\365\200\301\215\240\366A\246\"\\\301L:y\301\026\272\000Bj\013_\301\255\207m\301\301\335\005B=~`\301:\366^\301\371\222\nB\nW`\301e\321M\301\375\262\016B\340|^\301\311\212:\301\243\033\022B\252\344Z\301\210\264%\3017\262\024B\r\223U\301\200\367\017\301\334e\026B\031\235N\301\334\014\364\300\3530\027B\241\'F\301g\037\311\300$\031\027B=e<\301\273_\240\300\225.\026B\031\2231\301y\233u\300}\211\024B\024\365%\301LE2\300|G\022B\200\321\031\301\2732\357\277\235\210\017B/m\r\301\020\314\213\277\232l\014B\004\010\001\301f\000\350\276\265\020\tB\325\264\351\300\nph=O\216\005Bw\'\322\3000F\346>6\372\001B\024\263\273\300\320\213=?\025\311\374Al\217\246\300N\256q?=\262\365A\032\342\222\300a\263\211?\034\300\356A\233\300\200\300\031(\223?\350\374\347A}e`\300\317\323\226?En\341AYjB\300*\037\226?\206\026\333A\301w\'\300\254;\222?\273\365\324A\314h\017\300\013&\214?\205\n\317A;\037\364\277\275\252\204?\262R\311Aoq\316\2777\327x?\255\313\303AT[\255\277\270\313g?\305r\276Ain\220\277\322\357V?]E\271A\216{n\277\237\315F?\006A\264A\t\301B\277<\3067?\205c\257A\266\346\034\277A\032*?\335\252\252A\324f\370\276\r\361\035?J\025\246A\"\371\277\276\333^\023?9\241\241A@M\217\276\330i\n?EM\235A\352\223J\276;\016\003?1\030\231A\324\345\001\276<\203\372>\334\000\225Ag\234\205\2758\353\361>D\006\221A\312\333;\274\2773\354>z\'\215A\213\261\022=o;\351>\243c\211A\022N\237=\222\342\350>\361\271\205AJ\207\354=\336\014\353>\246)\202A\250r\031>\301\242\357>\027d}A\275\007:>F\222\366>\356\244vA\322\275X>\267\317\377>\213\024pA\310:v>\003\253\005?\271\261iAt\211\211>\217\223\014?P{cA\005\346\227>\t\246\024?8p]A:p\246>\245\352\035?g\217WA\273`\265>Um(?\340\327QA\355\354\304>\336=4?\266HLA\002H\325>\366oA?\r\341FA\377\243\346>c\033P?\027\240AA\2552\371>)\\`?\034\205<A8\223\006?\300Rr?u\2177A\223Y\021?)\022\203?\224\2762As\007\035?\205\375\215?\003\022.Ah\271)?8\003\232?j\211)A\351\2157?\347=\247?\222$%A\263\245F?V\313\265?m\343 A2$W?\251\314\305?\032\306\034A\351/i?\255f\327?\353\314\030A\333\362|?0\302\352?t\370\024A\201M\211?+\006\000@\225I\021Ac-\225?}\273\013@\205\301\rA\2774\242?\214\234\030@\347a\nA\373\201\260?\233\307&@\336,\007A\2016\300?\356]6@%%\004A\nw\321?\373\203G@0N\001A\356k\344?\246aZ@\237X\375@xA\371?o\"o@\271\211\370@\033\024\010@\314\372\202@\342<\364@\247\252\024@\037\207\217@I\202\360@j\201\"@\255Q\235@\270m\355@\002\2701@\315w\254@G\027\353@\304pB@\205\030\275@9\234\351@\313\320T@@T\317@\365\037\351@\367\377h@KL\343@5\315\351@\324(\177@\031\"\371@W\327\353@/\274\213@\023{\010A\340{\357@\307\016\231@7s\025A.\004\365@X\244\247@&\206#A>\307\374@$\225\267@\304\2742A\307\225\003A\307\370\310@B\032CAlT\nA\'\345\333@\230\231TA\310\344\022A\365l\360@H*gA\327\225\035A\334N\003AZ\254zA*\300*A\233>\017A\270u\207A\323\304:A\027\003\034A\211\314\221A\347\nNA\027\222)A\'#\234A\375\372dAP\3277A\226.\246A\n\370\177A\177\261FAj\215\257A`\252\217A;\357UA\351\305\267Ax\242\241A\260KeA0F\276A_\345\265A\302ktA\305g\302A\036P\314A\021n\201A\377w\303A\331\217\344A\251\010\210A\250\306\300A.\027\376AC\265\215AH\273\271A\t\014\014BC\034\222A#\360\255A\001\303\030B\246\344\224A3O\235AI\222$B\033\274\225A\337*\210A=\322.B\310`\224A6\224^A\342\3466BP\253\220Ar\300\'A/X<B\001\227\212A\226\263\335@\275\347>B\376E\202A{B\\@Z\235>B\247\377oAP\252S>\317\305;BZTXA\262\301(\300\211\3436BFz>A\0236\240\300\312\2250BXk#A\205\036\334\300\321})BH\022\010Arr\004\301-)\"Blp\332@\254/\024\301!\005\033B>\365\246@qs\036\301U[\024B\335$m@9t$\301UU\016B\343\245\023@)N\'\301\216\003\tB\022\354\203?\307\360\'\301\021e\004B\270\365\371\275\027\032\'\301]n\000B\345\275\223\277\306Y%\301\032\035\372A\303\237\004\300\'\030#\301\274e\364As\2318\3008\236 \301\266\221\357A\375bf\300\034\035\036\301\r\177\353A\370K\207\300t\264\033\301\275\017\350Av\350\230\300Vw\031\301\375)\345A{O\250\300 p\027\301\004\270\342A\\\304\265\300:\243\025\301\242\247\340A\221\204\301\300\034\021\024\301\304\351\336A\210\307\313\300\266\267\022\301\367q\335A\271\276\324\300j\223\021\301\3675\334A\357\225\334\300\270\237\020\301K-\333A\257s\343\300\265\327\017\301\357P\332A\250y\351\300R6\017\301\021\233\331A\'\305\356\300\217\266\016\301\322\006\331A\215o\363\300\236S\016\301\030\220\330A\270\216\367\300\360\010\016\301f3\330Ao5\373\300@\322\r\301\302\355\327A\276s\376\300\231\253\r\301\222\274\327A\245\253\000\301X\221\r\301\216\235\327A\320\365\001\301)\200\r\301\257\216\327A@\035\003\301\006u\r\301\036\216\327A\007&\004\3016m\r\301-\232\327A\213\023\005\301Hf\r\301K\261\327A\236\350\005\301\021^\r\301\000\322\327A\220\247\006\301\254R\r\301\351\372\327AFR\007\301uB\r\301\257*\330AK\352\007\301\t,\r\301\t`\330A\336p\010\301C\016\r\301\271\231\330A\001\347\010\301;\350\014\301\213\326\330A\207M\t\301C\271\014\301Q\025\331A\032\245\t\301\351\200\014\301\353T\331AH\356\t\301\357>\014\301@\224\331A\214)\n\301P\363\013\301C\322\331ASW\n\3015\236\013\301\364\r\332A\003x\n\301\375?\013\301_F\332A\003\214\n\3010\331\n\301\243z\332A\272\223\n\301\202j\n\301\356\251\332A\233\217\n\301\314\364\t\301\200\323\332A \200\n\301\010y\t\301\260\366\332A\321e\n\301Q\370\010\301\352\022\333ADA\n\301\326s\010\301\261\'\333A\037\023\n\301\336\354\007\301\2374\333A\031\334\t\301\274d\007\301k9\333A\366\234\t\301\317\334\006\301\3435\333A\214V\t\301yV\006\301\356)\333A\275\t\t\301\034\323\005\301\220\025\333Az\267\010\301\026T\005\301\342\370\332A\275`\010\301\272\332\004\301\033\324\332A\211\006\010\301Oh\004\301\205\247\332A\352\251\007\301\010\376\003\301\205s\332A\355K\007\301\004\235\003\301\2208\332A\242\355\006\301JF\003\3014\367\331A\031\220\006\301\305\372\002\301\r\260\331A^4\006\301F\273\002\301\310c\331Au\333\005\301{\210\002\301!\023\331A\\\206\005\301\364b\002\301\337\276\330A\0056\005\301!K\002\301\323g\330AT\353\004\301PA\002\301\325\016\330A!\247\004\301\253E\002\301\304\264\327A/j\004\301<X\002\301\201Z\327A05\004\301\356x\002\301\361\000\327A\303\010\004\301\206\247\002\301\365\250\326Ap\345\003\301\254\343\002\301nS\326A\251\313\003\301\350,\003\3018\001\326A\311\273\003\301\245\202\003\301*\263\325A\022\266\003\301-\344\003\301\022j\325A\257\272\003\301\262P\004\301\264&\325A\257\311\003\301H\307\004\301\313\351\324A\013\343\003\301\354F\005\301\002\264\324A\242\006\004\301\200\316\005\301\371\205\324A84\004\301\323\\\006\301>`\324A{k\004\301\236\360\006\301MC\324A\376\253\004\301\206\210\007\301\222/\324A?\365\004\301!#\010\301b%\324A\242F\005\301\366\276\010\301\377$\324Aw\237\005\301\202Z\t\301\222.\324A\371\376\005\3018\364\t\301.B\324ALd\006\301\204\212\n\301\316_\324A\204\316\006\301\322\033\013\301Q\207\324A\246<\007\301\217\246\013\301\177\270\324A\243\255\007\301,)\014\301\004\363\324Ad \010\301\'\242\014\301q6\325A\305\223\010\301\010\020\r\301>\202\325A\230\006\t\301nq\r\301\310\325\325A\256w\t\301\014\305\r\301T0\326A\321\345\t\301\265\t\016\301\014\221\326A\316O\n\301]>\016\301\007\367\326Av\264\n\301\034b\016\301Da\327A\240\022\013\3017t\016\301\262\316\327A/i\013\301!t\016\301/>\330A\024\267\013\301\201a\016\301\214\256\330AR\373\013\3012<\016\301\221\036\331A\0025\014\301I\004\016\301\002\215\331AVc\014\301\022\272\r\301\235\370\331A\234\205\014\301\030^\r\301\'`\332AB\233\014\301\033\361\014\301h\302\332A\330\243\014\301\027t\014\3016\036\333A\021\237\014\301>\350\013\301rr\333A\311\214\014\301\365N\013\301\025\276\333A\000m\014\301\320\251\n\301+\000\334A\342?\014\301\214\372\t\301\3357\334A\300\005\014\301\014C\t\301od\334A\024\277\013\301O\205\010\301H\205\334A\201l\013\301i\303\007\301\360\231\334A\313\016\013\301}\377\006\301\021\242\334A\335\246\n\301\270;\006\301~\235\334A\2775\n\301Bz\005\301,\214\334A\231\274\t\301?\275\004\3017n\334A\252<\t\301\303\006\004\301\336C\334AF\267\010\301\314X\003\301\203\r\334A\323-\010\301<\265\002\301\255\313\333A\304\241\007\301\327\035\002\301\376~\333A\223\024\007\3019\224\001\3017(\333A\275\207\006\301\327\031\001\3013\310\332A\300\374\005\301\371\257\000\301\346_\332A\022u\005\301\272W\000\301W\360\331A#\362\004\301\005\022\000\301\237z\331ASu\004\301)\277\377\300\345\377\330A\363\377\003\301\346\201\377\300[\201\330A@\223\003\301\363l\377\300=\000\330A_0\003\301\246\200\377\300\313}\327A^\330\002\301\364\274\377\300I\373\326A.\214\002\301\275\020\000\301\373y\326A\242L\002\301\274V\000\301 \373\325Ar\032\002\301\361\257\000\301\367\177\325A2\366\001\301\247\033\001\301\263\t\325AW\340\001\301\007\231\001\301\202\231\324A5\331\001\301\017\'\002\301\2040\324A\376\340\001\301\235\304\002\301\314\317\323A\302\367\001\301hp\003\301^x\323Al\035\002\301\t)\004\301.+\323A\310Q\002\301\366\354\004\301\032\351\322A\200\224\002\301\210\272\005\301\356\262\322A\032\345\002\301\372\217\006\301]\211\322A\376B\003\301nk\007\301\001m\322Ao\255\003\301\355J\010\301Y^\322A\225#\004\301g,\t\301\312]\322Aw\244\004\301\272\r\n\301\226k\322A\376.\005\301\266\354\n\301\341\207\322A\367\301\005\301\033\307\013\301\254\262\322A\024\\\006\301\243\232\014\301\326\353\322A\357\373\006\301\003e\r\301\0273\323A\013\240\007\301\365#\016\301\000\210\323A\325F\010\3018\325\016\301\376\351\323A\254\356\010\301\237v\017\301TX\324A\336\225\t\301\016\006\020\301\037\322\324A\257:\n\301\214\201\020\301TV\325A_\333\n\301C\347\020\301\302\343\325A)v\013\301\2155\021\301\027y\326AM\t\014\301\374j\021\301\334\024\327A\021\223\014\301^\206\021\301}\265\327A\314\021\r\301\312\206\021\301MY\330A\346\203\r\301\242k\021\301\205\376\330A\337\347\r\301\2344\021\301S\243\331AX<\016\301\310\341\020\301\326E\332A\027\200\016\301\217s\020\301+\344\332A\t\262\016\301\271\352\017\301o|\333AN\321\016\301jH\017\301\312\014\334A7\335\016\301\"\216\016\301v\223\334AO\325\016\301\271\275\r\301\301\016\335AY\271\016\301Z\331\014\301\033}\335AY\211\016\301z\343\013\301\027\335\335A\220E\016\301\316\336\n\301s-\336A|\356\r\301D\316\t\301\035m\336A\335\204\r\301\366\264\010\3017\233\336A\254\t\r\301\033\226\007\301\030\267\336A\036~\014\301\376t\006\301S\300\336A\233\343\013\301\354T\005\301\264\266\336A\274;\013\301,9\004\301A\232\336AH\210\n\301\362$\003\3019k\336A%\313\t\301O\033\002\301\022*\336A]\006\t\301-\037\001\301x\327\335A\013<\010\301C3\000\301Ft\335A^n\007\301\034\264\376\300\203\001\335A\211\237\006\301\225+\375\300b\200\334A\303\321\005\301\345\320\373\3005\362\333A;\007\005\301p\247\372\300oX\333A\024B\004\301\013\262\371\300\235\264\332A_\204\003\301\371\362\370\300^\010\332A\025\320\002\301\360k\370\300cU\331A\022\'\002\301\031\036\370\300h\235\330A\022\213\001\301\025\n\370\3001\342\327A\253\375\000\301\0040\370\300\204%\327AM\200\000\301\214\217\370\300\'i\326A?\024\000\301\333\'\371\300\340\256\325A;u\377\300\263\367\371\300j\370\324A\256\350\376\300k\375\372\300zG\324AZ\204\376\300\3656\374\300\273\235\323AjI\376\300\346\241\375\300\306\374\322A\2518\376\300u;\377\300)f\322A\213R\376\300A\200\000\301^\333\321A#\227\376\300\314v\001\301\313]\321A/\006\377\300v\177\002\301\300\356\320A\017\237\377\3002\230\003\301w\217\320Ae0\000\301\311\276\004\301\014A\320A\t\245\000\301\334\360\005\301\202\004\320A\236,\001\301\350+\007\301\272\332\317A%\306\001\301Bm\010\301s\304\317Aup\002\301\034\262\t\301I\302\317A9*\003\301\205\367\n\301\257\324\317A\364\361\003\301n:\014\301\354\373\317A\000\306\004\301\256w\r\301\0328\320A\221\244\005\301\003\254\016\301!\211\320A\266\213\006\301\035\324\017\301\267\356\320AZy\007\301\244\354\020\301Yh\321AHk\010\301=\362\021\301J\365\321A-_\t\301\232\341\022\301\226\224\322A\237R\n\301\177\267\023\301\010E\323A\033C\013\301\324p\024\3011\005\324A\024.\014\301\257\n\025\301d\323\324A\360\020\r\301c\202\025\301\274\255\325A\026\351\r\301\217\325\025\301\030\222\326A\357\263\016\301/\002\026\301\'~\327A\365n\017\301\244\006\026\301go\330A\272\027\020\301\313\341\025\3010c\331A\357\253\020\301\377\222\025\301\270V\332Ap)\021\301,\032\025\301$G\333AP\216\021\301\323w\024\301\2101\334A\335\330\021\301\013\255\023\301\375\022\335A\256\007\022\301\213\273\022\301\246\350\335A\253\031\022\301\241\245\021\301\300\257\336A\020\016\022\301/n\020\301\256e\337Az\344\021\301\235\030\017\301\003\010\340A\344\234\021\301\324\250\r\301\221\224\340A\2577\021\301##\014\301p\t\341A\241\265\020\3014\214\n\301\006e\341A\343\027\020\301\361\350\010\301\022\246\341A\376_\017\301n>\007\301\254\313\341A\326\217\016\301\323\221\005\301L\325\341A\242\251\r\301A\350\003\301\305\302\341A\345\257\014\301\300F\002\301J\224\341Ab\245\013\301%\262\000\301fJ\341A\017\215\n\301\005^\376\300\371\345\340A\016j\t\301/\203\373\3000h\340A\233?\010\301\205\333\370\300\200\322\337A\006\021\007\301\361m\366\300\234&\337A\236\341\005\301}@\364\300jf\336A\256\264\004\301KX\362\300\001\224\335Am\215\003\301\225\271\360\300\231\261\334A\367n\002\301\261g\357\300\207\301\333A@\\\001\301\031e\356\3002\306\332A\025X\000\301t\263\355\300\020\302\331A\027\312\376\300\247S\355\300\236\267\330A\014\013\375\300\341E\355\300X\251\327AUw\373\300\251\211\355\300\267\231\326A\303\022\372\300\360\035\356\300.\213\325A\256\340\370\300\034\001\357\300$\200\324A\354\343\367\300\0261\360\300\362z\323A\327\036\367\300R\253\361\300\342}\322AJ\223\366\300\335l\363\300-\213\321A\245B\366\300\\r\365\300\367\244\320A\321-\366\300\026\270\367\300Q\315\317A>U\366\300\3669\372\3006\006\317A\352\270\366\300\205\363\374\300\207Q\316A`X\367\300\361\337\377\300\017\261\315A\2732\370\300\002}\001\301|&\315A\251F\371\300\022\036\003\301^\263\314Ai\222\372\300&\320\004\301%Y\314A\314\023\374\300\004\220\006\301\037\031\314A9\310\375\300:Z\010\301r\364\313A\245\254\377\300\031+\n\301\030\354\313A\315\336\000\301\272\376\013\301\332\000\314A\230\373\001\301\371\320\r\301P3\314A\210*\003\301z\235\017\301\323\203\314A:i\004\301\254_\021\301}\362\314A\022\265\005\301\317\022\023\301#\177\315A>\013\007\301\376\261\024\301I)\316A\270h\010\30178\026\301&\360\316AE\312\t\301l\240\027\301\224\322\317A|,\013\301\221\345\030\301\024\317\320A\313\213\014\301\262\002\032\301\305\343\321A|\344\r\301\t\363\032\301d\016\323A\2752\017\301\026\262\033\301JL\324A\254r\020\301\273;\034\301s\232\325Aa\240\021\301X\214\034\301y\365\326A\372\267\022\301\346\240\034\301\245Y\330A\253\265\023\301\027w\034\301\357\302\331A\317\225\024\301j\r\034\301\024-\333A\370T\025\301Ic\033\301\235\223\334A\000\360\025\301\025y\032\301\371\361\335A\034d\026\3019P\031\301\212C\337A\354\256\026\301+\353\027\301\302\203\340A\214\316\026\301pM\026\3015\256\341A\243\301\026\301\221{\024\301\263\276\342An\207\026\301\010{\022\301_\261\343A\312\037\026\301(R\020\301\303\202\344A:\213\025\301\000\010\016\301\342/\345A\347\312\024\301.\244\013\301L\266\345A\241\340\023\301\271.\t\301$\024\346A\327\316\022\301\343\257\006\301+H\346A\213\230\021\301\371/\004\301\304Q\346AJA\020\301&\267\001\301\3560\346A\023\315\016\301\222\232\376\300D\346\345AK@\r\301\236\363\371\300\356r\345A\245\237\013\301\'\207\365\300\232\330\344A\n\360\t\301\217a\361\300i\031\344A\2036\010\301\275\215\355\300\3417\343A&x\006\301\013\025\352\300\3336\342A\374\271\004\301;\377\346\300s\031\341A\363\000\003\301~R\344\300\364\342\337A\307Q\001\301\200\023\342\300\317\226\336A\364a\377\300\204E\340\300\2058\335A\202E\374\300\202\352\336\300\241\313\333A\002V\371\300C\003\336\300\256S\332A\211\232\366\300\216\217\335\300*\324\330Ap\031\364\300D\216\335\300\204P\327AR\330\361\300\206\375\335\300\025\314\325A\n\334\357\300\323\332\336\300\037J\324A\270(\356\300\'#\340\300\312\315\322A\303\301\354\300\r\323\341\300!Z\321A\344\251\353\300\264\346\343\300\025\362\317A,\343\352\300\371Y\346\300}\230\316A\ro\352\300t(\351\300\026P\315AdN\352\300uM\354\300\203\033\314A\177\201\352\300\006\304\357\300O\375\312A&\010\353\300\344\206\363\300\354\367\311A\240\341\353\300v\220\367\300\266\r\311A\265\014\355\300\276\332\373\300\356@\310A\266\207\356\300\246/\000\301\274\223\307AxP\360\300\226\213\002\301+\010\307AWd\362\300l\375\004\301&\240\306A1\300\364\300\017\201\007\301u]\306Ab`\367\300\t\022\n\301\264A\306A\300@\372\300\200\253\014\301QN\306A\224\\\375\3000H\017\301\201\204\306AGW\000\301d\342\021\3015\345\306Ad\030\002\301\364s\024\301\024q\307AX\356\003\301I\366\026\301n(\310A\212\325\005\301cb\031\301,\013\311A\006\312\007\301\337\260\033\301\312\030\312A\202\307\t\301\r\332\035\301BP\313A]\311\013\301\002\326\037\301\007\260\314A\241\312\r\301\264\234!\301\3645\316A\t\306\017\301\"&#\301C\337\317A\013\266\021\301yj$\301\210\250\321A\343\224\023\301Ib%\301\252\215\323A\241\\\025\301\266\006&\301\344\211\325A<\007\027\301\261Q&\301\312\227\327A\256\216\030\3018>&\301V\261\331A\t\355\031\301\215\310%\301\366\317\333A\226\034\033\301j\356$\301\250\354\335A\370\027\034\3016\257#\301\026\000\340AK\332\034\301)\014\"\301\272\002\342AH_\035\301f\010 \301\n\355\343Ad\243\035\301\002\251\035\301\246\267\345A\364\243\035\301\376\364\032\301\203[\347AB_\035\301\'\365\027\301\035\322\350A\246\324\034\301\360\263\024\301\243\025\352A\224\004\034\301)=\021\301\035!\353A\242\360\032\301\265\235\r\301\215\360\353A\213\233\031\3011\343\t\301\007\201\354A\033\t\030\301\223\033\006\301\274\320\354A\'>\026\301\305T\002\301\002\337\354Aj@\024\301\2378\375\300E\254\354Ah\026\022\301\364\375\365\300\3779\354AC\307\017\301\024\021\357\300\234\212\353A\227Z\r\301\014\207\350\300Z\241\352AH\330\n\301\027r\342\300(\202\351A\\H\010\301w\341\334\300\2011\350A\314\262\005\301a\341\327\300J\264\346Ac\037\003\301\020{\323\300\252\017\345A\232\225\000\301\362\264\317\300\361H\343A\3728\374\300\342\222\314\300ve\341A*u\367\300z\026\312\300\207j\337A\262\353\362\300^?\310\300P]\335AD\247\356\300\232\013\307\300\324B\333AL\261\352\300\365w\306\300\340\037\331A\367\021\347\300=\200\306\300\t\371\326A1\320\343\300\221\037\307\300\250\322\324A\272\361\340\300\241P\310\300\335\260\322A8{\336\300\327\r\312\300\217\227\320AHp\334\300\212Q\314\300v\212\316A\233\323\332\300\016\026\317\300\027\215\314A\r\247\331\300\320U\322\300\325\242\312A\272\353\330\300T\013\326\300\356\316\310A\026\242\330\30071\332\300\206\024\307A\000\312\330\300\'\302\336\300\247v\305A\321b\331\300\314\270\343\300L\370\303Ajk\332\300\263\017\351\300a\234\302A>\342\333\3002\301\356\300\306e\301AV\305\335\300B\307\364\300PW\300AT\022\340\300Z\033\373\300\313s\277Ao\306\342\300$\333\000\301\370\275\276Ak\336\345\300\000H\004\301\2078\276A\223V\351\300\272\317\007\301\025\346\275A\252*\355\3000m\013\301%\311\275A\326U\361\300\223\032\017\301\023\344\275A\221\322\365\300N\321\022\301\0079\276A\222\232\372\300\367\211\026\301\354\311\276A\265\246\377\300><\032\301U\230\277Aqw\002\301\346\336\035\301o\245\300A\3754\005\301\300g!\301\342\361\301A\335\006\010\301\260\313$\301\277}\303AY\347\n\301\303\376\'\301[H\305A\027\320\r\301B\364*\3018P\307A\033\272\020\301\346\236-\301\341\222\311A\311\235\023\301\014\361/\301\327\014\314A\351r\026\301\003\3351\301n\271\316A\2700\031\301eU3\301\303\222\321A\375\315\033\301\203M4\301\254\221\324A$A\036\301\333\2714\301\266\255\327Ai\200 \301\233\2204\3018\335\332A\010\202\"\301$\3123\301e\025\336Aq<$\301\212a2\301\177J\341A\215\246%\301\tU0\301\013p\344A\000\270&\301d\246-\301%y\347Api\'\301\'[*\301\320X\352A\317\264\'\301\275|&\301`\002\355A\232\225\'\301`\030\"\301\335i\357A\024\t\'\301\324>\035\301o\204\361At\016&\301\365\003\030\301\267H\363A\001\247$\301\024~\022\301$\257\364A\035\326\"\301=\305\014\301.\262\365A:\241 \301V\362\006\301~N\366A\274\017\036\301G\036\001\301\361\202\366A\312*\033\3019\302\366\300\222P\366A\006\375\027\301\204\242\353\300h\272\365A?\222\024\301\274\005\341\300>\305\364A\034\367\020\301\265\016\327\300Ww\363A\2748\r\301!\332\315\300\033\330\361A^d\t\301\\~\305\300\275\357\357A\014\207\005\301x\013\276\300\356\306\355AQ\255\001\301\231\213\267\300\215f\353A\356\305\373\300\214\003\262\300j\327\350A\261e\364\300\200s\255\300\021\"\346AyM\355\300\320\327\251\300\246N\343A\201\216\346\300\340)\247\300\311d\340A\2447\340\300\344`\245\300\214k\335A^U\332\300\241r\244\300ji\332A\345\361\324\300\023T\244\300Jd\327AP\025\320\300\373\371\244\300\217a\324A\307\305\313\300NY\246\300\031f\321A\273\007\310\300\216g\250\300_v\316A\035\336\304\300\004\033\253\300w\226\313A\232J\302\300\350j\256\300+\312\310A\325M\300\300uO\262\300\007\025\306A\231\347\276\300\346\301\266\300jz\303A\007\027\276\300l\274\273\300\221\375\300A\304\332\275\300\027:\301\300\250\241\276A\0311\276\300\2566\307\300\321i\274A\016\030\277\300\214\256\315\3002Y\272A\201\215\300\300f\236\324\300\375r\270A2\217\302\300\030\003\334\300w\272\266A\311\032\305\300d\331\343\300\3762\265A\330-\310\300\262\035\354\300\016\340\263A\325\305\313\300\301\313\364\300C\305\262A\006\340\317\300]\336\375\300[\346\261Auy\324\300\206\247\003\3014G\261A\321\216\331\300\327\212\010\301\302\353\260AM\034\337\300\024\224\r\301\020\330\260A}\035\345\300\000\275\022\301*\020\261A#\215\353\300\373\375\027\301\017\230\261A\005e\362\300\327M\035\301\234s\262A\260\235\371\300\247\241\"\301j\246\263A \227\000\301\226\354\'\301\2533\265A\022\206\004\301\315\037-\301\373\035\267Ar\225\010\301Y*2\3011g\271A\357\275\014\3011\3716\301\034\020\274A\017\367\020\301Kw;\301D\030\277A\0257\025\301\320\215?\301\245}\302A\365r\031\301w$C\301`<\306AO\236\035\301\004\"F\301xN\312Az\253!\301\370lH\301\222\253\316A\240\213%\301m\354I\301\277H\323A\350.)\301\036\211J\301g\030\330A\272\204,\301\223.J\301B\n\335A\035|/\301e\314H\301\203\013\342A$\0042\301\204WF\301&\007\347Az\0144\301j\313B\301r\346\353A\371\2055\301\032+>\301\242\221\360AIc6\301\324\2018\301\277\360\364A\212\2316\301R\3431\301\217\354\370A\353 6\301\221k*\301\234o\374A/\3654\301\003>\"\301+g\377A\021\0263\301<\204\031\301\017\342\000B{\2070\301.l\020\301\321\275\001B\215Q-\301\014&\007\301\313C\002Bg\200)\301 \304\373\300\\s\002B\304#%\301\205\234\351\3003N\002BkN \301\026)\330\300\034\330\001Bn\025\033\301<\262\307\300\242\026\001Bf\217\025\301\327r\270\300\254\020\000B\232\323\017\3011\227\252\300\016\234\375A3\371\t\301\363<\236\300\363\255\372A\207\026\004\301\373s\223\300\274g\367A\362\200\374\300\351?\212\300\244\331\363A\013\024\361\300\023\232\202\300\354\022\360A\331\007\346\300l\347x\300\204!\354A\010y\333\300Rpo\300\342\021\350AY\177\321\300\330\235h\300\355\356\343A\264-\310\300\371:d\300\010\302\337A{\222\277\300\267\021b\3000\223\333A\353\267\267\300\204\355a\300\037i\327A\232\244\260\300\024\235c\300yI\323A\377[\252\300\234\363f\300\3708\317A\372\336\244\300\237\311k\300\232;\313A\\,\240\300N\375q\300\305T\307AdA\234\300\244ry\300o\207\303A/\032\231\300\240\t\201\300<\326\277A!\262\226\300\r\347\205\300\225C\274A8\004\225\300\213K\213\300\307\321\270AZ\013\224\300I3\221\300\020\203\265A\214\302\223\300h\234\227\300\265Y\262A\"%\224\300\276\206\236\300\017X\257A\344.\225\300\205\363\245\300\227\200\254A(\334\226\300\035\345\255\300\371\325\251A\332)\231\300\273^\266\300\027[\247A\212\025\234\300 d\277\300\035\023\245Af\235\237\300M\371\310\300\206\001\243A0\300\243\3000\"\323\300+*\241A0}\250\300E\342\335\300G\221\237A\031\324\255\3009<\351\300\207;\236A\351\304\263\300v1\365\300\r.\235A\304O\272\300\326\340\000\301wn\234A\301t\301\300\035u\007\301\343\002\234A\2643\311\300\314R\016\301\353\361\233A\344\213\321\300Lu\025\301\241B\234A\303{\332\300\323\325\034\301\177\374\234A\215\000\344\300\362j$\301N\'\236A\342\025\356\300#(,\301\004\313\237AS\265\370\300L\3753\301\214\357\241A\355\352\001\301D\326;\301\205\234\244A\251\265\007\301h\232C\301\346\330\247A\357\262\r\3016,K\301\212\252\253A\251\330\023\301\030iR\301\242\025\260AN\032\032\301^)Y\301\026\034\265A\234h \301z@_\301\306\274\272Af\261&\301\254}d\301\276\362\300Am\337,\301\027\255h\301i\264\307Ad\3322\301p\231k\301\312\362\316A\031\2078\3017\016m\301\334\230\326A\317\307=\301\226\332l\301)\213\336A\343|B\301\260\324j\301\302\247\346A\252\205F\301R\335f\301\261\306\356A\242\301I\301\237\343`\301\373\272\366A\324\021L\301b\350X\301@T\376A|ZM\301\212\000O\301z\260\002B\261\204M\301XVC\301\212\330\005B\016\200L\301\333(6\301\205\214\010B#DJ\301\221\311\'\301K\272\nB{\321F\301\036\230\030\301\243T\014B%2B\301\226\374\010\301\021T\rB\226y<\301\237\301\362\300<\267\rB\351\3035\301LS\324\300\275\202\rB|4.\301\315a\267\300p\300\014B \364%\3017\201\234\300`~\013B\371.\035\301Y \204\300n\315\tBK\022\024\301\220\r]\300\361\277\007Bg\312\n\301\002\2557\300lh\005B\343\200\001\301| \030\300\201\330\002Bl\266\360\300Gf\374\277) \000B\212\363\336\300\"\017\323\277\212\232\372A\303\356\315\300\272J\263\277\321\326\364A[\322\275\300\254\n\234\277\311\007\357A\226\275\256\300>7\214\277\346;\351A\234\305\240\300\361\276\202\277\377}\343A\237\366\223\300+C}\277\344\325\335A3U\210\300\262\356}\277\375H\330AS\277{\300\234\364\202\277\331\332\322A\322\036i\300I\353\211\277\246\215\315AN\264X\300gJ\223\277\234b\310A\376eJ\300~\234\236\277FZ\303A\322\026>\300I\205\253\277\301t\276A\000\2503\300\014\277\271\277\354\261\271A[\372*\300\330\027\311\277\203\021\265AO\357#\300\340n\331\2778\223\260A\271i\036\300\374\261\352\277\3036\254AsN\032\300v\333\374\277\352\373\247A\307\204\027\300\t\370\007\300\214\342\243A\264\366\025\300\261\376\021\300\240\352\237A\032\221\025\3005\214\034\300C\024\234A\320C\026\300;\256\'\300\263_\230A\250\001\030\300\030u3\300Y\315\224Af\300\032\300w\363?\300\313]\221A\264x\036\300\013>M\300\323\021\216A\n&#\300ck[\300w\352\212A\223\306(\300\265\223j\300\001\351\207A\026[/\300\303\320z\300\010\017\205A\333\3466\300\337\036\206\300{^\202A\213o?\300\221{\217\300a\263\177A\032\375H\300I\215\231\300\357\006{A\246\231S\300Wc\244\300I\276vAZQ_\300b\r\260\300U\341rAK2l\300=\233\274\300_yoAPLz\300\247\034\312\300R\221lAh\330\204\300\357\240\330\300\3525jAB9\215\300\2046\350\300\366uhA\225R\226\300T\352\370\300\227bgA\217.\240\300\205c\005\301\202\017gAh\327\252\300\007\352\016\301A\223gA\022W\266\300\035\n\031\301l\007iA\311\266\302\300(\302#\301\325\210kA\212\376\317\300\211\014/\301\2327oAe4\336\300v\336:\301\0237tA\245[\355\300\242&G\301\213\255zA\317s\375\300\257\313S\301\322a\201A\257;\007\301x\252`\301\252Q\206A)-\020\301<\224m\301/;\214AE\204\031\301\324Lz\301\0042\223A\3551#\301\216D\203\301\016G\233A\013!-\301\360\366\210\301t\206\244A\20757\301\314\007\216\301*\365\256AUKA\301\3159\222\301\n\216\272A\3025K\301\210I\225\301\253>\307A\027\277T\301=\360\226\3010\344\324A\324\250]\301\367\347\226\301\206H\343A\275\254e\3014\361\224\301\265 \362A\350~l\301\301\331\220\301s\206\000B\367\320q\301U\204\212\301w\315\007B\211Vu\301\333\357\201\301\354\245\016B\247\312v\301-zn\301D\316\024B\316\365u\301UbU\301u\010\032B\334\263r\301vg9\301( \036B\005\371l\301\'\220\033\301y\360 B\356\324d\301J\007\372\3009h\"B4sZ\301\275\332\275\300\255\213\"B\005\031N\301Y\277\204\300]s!B\026 @\301^\354 \300=H\037B\226\3570\3013\362\210\277\351=\034BA\364 \301\236\334\'>Q\214\030B\257\230\020\301\366L\227?\350i\024B\333>\000\301\353\027\377?9\007\020B\360v\340\300\223X\'@K\214\013B\236\246\301\300\036\227D@\266\027\007B\315t\244\300\342\373X@\003\277\002BS)\211\300\213:f@\327\037\375A!\336_\300\313\351m@\327#\365A\212\2601\300(sq@\326\217\355A\222\306\007\300.\014r@]c\346A\226\374\303\277\027\266p@\020\232\337A\351>\200\277bAn@z-\331AI\212\007\277vSk@N\026\323A\226\330\336\275\002mh@;M\315A\340\314\207>T\360e@p\313\307A\355\025\031?,\'d@\332\212\302A\315\te?\334Gc@E\206\275A\374\205\224?\270yc@[\271\270A\207*\263?\272\330d@\235 \264A\322\004\317?\216xg@K\271\257As\234\350?\013gk@U\201\253A\0337\000@\'\256p@Ew\247A6v\013@\213Uw@0\232\243A\277?\026@\310c\177@\251\351\237AY\303 @\244o\204@\266e\234A\213,+@|\347\211@\320\016\231A/\2435@g\035\220@\335\345\225A\362K@@\006\026\227@3\354\222A\302HK@\270\326\236@\236#\220A9\271V@\232e\247@f\216\215A\006\273b@|\311\260@\\/\213A8jo@\274\t\273@\347\t\211A\213\341|@\027.\306@\020\"\207AN\235\205@d>\322@\232|\205A\003G\215@6B\337@\r\037\204A\273y\225@d@\355@\321\017\203A\314@\236@w>\374@AV\202A\367\246\247@\365\037\006A\277\372\201AB\266\261@\243\242\016A\303\006\202A\303w\274@\207\245\027A\354\204\202AJ\363\307@6$!A\005\201\203A\001/\324@\323\026+A\374\007\205A\336.\341@,q5A\316\'\207A\004\364\356@\257!@AV\357\211A\363{\375@P\020KA\000n\215A\317_\006AP\035VAS\263\221A)Y\016A\n aAE\316\226A?\240\026A\323\345kAV\314\234A4\'\037A\0231vAa\270\243Ad\333\'A\320\270\177A&\231\253A\274\2440Aq\024\204A\211o\264A&e9A\223\221\207A\2234\276A&\370AA\372 \212AY\327\310A\2732JA\032\216\213A\361:\324A\255\343QA\235\245\213A\3074\340An\324XA19\212A\254\213\354A\241\312^A\032$\207A\001\370\370Ab\212cA\026P\202A\277\222\002B]\331fA:twA_[\010Bs\202hA,\354fA_\245\rB\322YhA\202aSA\363A\022B\376@fA\034^=A\364\007\026BM*bA\372\224%A\270\327\030B_\033\\AI\325\014A#\236\032B\366-TA\206\362\347@jV\033B\027\217JA\263\246\267@\"\n\033BQ|?Ar9\212@\232\317\031B\217?3AR\237A@\321\306\027B\374)&AA\306\360?\237\025\025B\252\216\030A\320?f?\311\343\021B\231\275\nA\255!\251=\211W\016BT\377\371@\321t\023\277\006\223\nB\211\'\337@\014m\213\277\324\262\006BtZ\305@<\257\274\277c\315\002B\241\346\254@\225\347\337\277y\346\375A`\003\226@\266\203\367\277f_\366A\362\322\200@\000\351\002\300\242\023\357A\315\312Z@\347t\006\300\260\n\350A\242w7@\272O\007\300TG\341A\345\226\027@e@\006\300\033\311\332A\274\002\366?\304\353\003\300\227\215\324A\202\006\303?{\327\000\300>\221\316A)\301\225?Y\333\372\277\025\320\310A\005c[?\376\001\364\277\022F\303A\205\245\024?\374\240\355\277`\357\275A$\203\254>y\026\350\277\204\310\270A$\264\371=\032\247\343\277d\316\263A\325\202\213\275\232\203\340\277R\376\256A(dr\276\226\315\336\277\377U\252A\2012\306\276\204\233\336\277v\323\245A\325\265\005\277\t\374\337\277\022u\241A\333\"%\277\247\370\342\277o9\235AM\004B\277\360\227\347\277h\037\231A\017\357\\\277H\337\355\277\013&\225A5jv\277H\324\365\277\223L\221A9x\207\277\331}\377\277g\222\215A\311x\223\277\211r\005\300\025\367\211A\003j\237\277\362\n\014\300Rz\206A3{\253\277\320\217\023\300\373\033\203Aq\330\267\277\262\n\034\300.\270\177AV\253\304\2778\207%\300\261uyA\246\033\322\2776\0230\300EqsA\355O\340\277\313\276;\300#\254mA\027n\357\277}\234H\300\376\'hA\373\233\377\277H\301V\300\032\347bA\353\177\010\300\254Df\300c\354]Ae\340\021\300\260@w\300\204;YA\240\003\034\300\362\350\204\300\n\331TA\246\376&\300\251\013\217\300\210\312PA\204\3472\3002\031\232\300\304\026MAg\325?\300U#\246\300\345\305IA\273\340M\300\311<\263\300\263\341FA7#]\300\371x\301\300\332uDA\343\267m\300\254\353\320\3002\220BA\t\273\177\300\220\250\341\300\031AAA\005\245\211\300\224\302\363\300\316\233@A\224A\224\300\211\245\003\301\333\266@A\207\302\237\300V(\016\301}\254AA$7\254\300\347n\031\301\020\233CA5\256\271\300h{%\301r\245FAx5\310\300\310K2\301T\363JA\340\330\327\300;\330?\301e\261PA\243\241\350\300i\021N\301E\021XA\364\224\372\300B\336\\\301\030IaAA\331\006\301~\031l\301\231\222lAG\371\020\301\312\216{\301n)zA\324\241\033\301\350{\205\301C$\205A\007\304&\301\252\374\214\301$\223\216A\\I2\301^\020\224\301\230w\231A\031\022>\301Uq\232\301r\337\245A\301\363I\301\257\315\237\301\300\313\263A\267\267U\301\355\310\243\301\320+\303AT\032a\301o\377\245\301\340\327\323A\310\312k\301R\014\246\301)\214\345A+lu\301\363\221\243\301`\345\367A$\230}\301\337D\236\301\357/\005B\300\361\201\301[\370\225\301|-\016Bi\362\203\301\271\252\212\301\317\220\026Bq\236\204\301\n\036y\301I\374\035B\032\320\203\301)\"X\301\246\030$B3p\201\301&\2433\301i\237(B\337\363z\301\3711\r\301Kd+B\025\372o\301=\013\315\300r[,B<;b\301b\222\202\300\312\232+B\010#R\301#`\367\277\361U)B!7@\301\023\325\373\274\266\325%B\002\013-\301\341\017\313?Am!BO3\031\301\227\013:@ko\034B\260:\005\301\200B|@U&\027B\0353\343\300\262\362\226@E\316\021B\210b\275\300\343\243\250@\323\223\014B\027\225\231\300\357{\264@\246\224\007B\372Yp\300\264\273\273@\307\341\002B\n\3052\300]\207\277@#\005\375A\206,\365\277\035\333\300@>\357\364A\240\203\217\277\003\210\300@\210z\355A\326\231\320\276\3415\277@\375\232\346AOdl>\361g\275@\252B\340A\206\266L?r\202\273@\202c\332A\352\037\247?^\320\271@k\360\324A\336\274\340?\222\210\270@\327\335\317A\350\t\n@:\322\267@\375!\313A\302\377 @\206\310\267@\327\264\306A\343\2475@\231}\270@\016\220\302AkcH@\344\374\271@\320\256\276A\016\214Y@\373L\274@\237\r\273A\331si@\366p\277@\'\252\267AAex@~i\303@\032\203\264A\267Q\203@\2265\310@\014\230\261AM5\212@\"\323\315@Y\351\256AI\370\220@>?\324@\022x\254A\224\262\227@nv\333@\354E\252A]y\236@\256t\343@8U\250AL_\245@^5\354@\327\250\246A\264t\254@\025\263\365@7D\245A\276\307\263@Z\347\377@M+\244A\201d\273@%e\005A\220b\243A\025U\303@\020)\013A\360\356\242A\226\241\313@V9\021A\317\325\242A\030P\324@`\216\027A\357\034\243A\217d\335@\272\036\036A^\312\243A\246\340\346@\273\336$AZ\344\244A\210\303\360@#\300+A#q\246A\233\t\373@\270\2612A\316v\250A\030\326\002A\353\2369A\371\372\252A\223P\010A\211o@Ay\002\256AF\355\rA\203\007GA\367\220\261A\030\243\023A\334FMAp\250\265A\254f\031A\301\tSA\256H\272A.*\037A\352(XA\263n\277AA\335$AMz\\A\030\024\305A\365l*A*\322_As.\313A\341\303/A\214\004bA\317\256\321AY\3124A5\347bAH\201\330A\325f9A\362SbA\327\214\337A\213~=A<+`Ay\263\346A6\366@A\005W\\A\250\322\355A\030\263CAk\315VAJ\304\364A \234EA\010\223OA\024`\373A7\233FA\217\274FA\247\276\000B\215\236FAfo<Avz\003B\326\231EA\375\3400A\335\321\005BZ\207CA\300T$AC\266\007B\261h@A\311\030\027A\362\034\tB\032G<A\202\201\tA\263\377\tBW37Ad\311\367@\024]\nB\023E1A\341(\335@K8\nB\320\231*AG\265\303@\261\230\tB\177S#A\312\352\253@\002\211\010B\343\226\033Ak)\226@b\026\007B\336\211\023A\t\263\202@XO\005B\325Q\013A)Xc@\325B\003BA\022\003A\212<F@a\377\000B\025\327\365@\245\371-@\364$\375Au\364\345@\304R\032@N\020\370A\363\254\326@7\362\n@\205\325\362A\304\'\310@\266\345\376?\331\205\355A\"\203\272@\243\320\356?A/\350A\326\324\255@R\313\344?\270\334\342A\t+\242@\303\004\340?\253\226\335A@\215\227@\324\273\337?jc\330Al\375\215@\241C\343?\216G\323A\370x\205@\277\005\352?bF\316A\242\363{@\343\202\363?7b\311A\235\356n@]R\377?\246\234\304A\022\316c@j\220\006@\311\366\277A\033{Z@GW\016@lq\273A\354\335R@\271\346\026@%\r\267A\315\336L@\206/ @u\312\262A\340fH@K)*@\330\251\256A\267`E@\220\3214@\325\253\252A\315\270C@\366*@@\004\321\246A\321]C@y<L@\"\032\243A\342@D@\315\020Y@\016\210\237A\255UF@\317\265f@\331\033\234A}\222I@\r<u@\315\326\230A>\360M@-[\202@t\272\225AtjS@\272\234\212@\242\310\222A(\377Y@\326m\223@\203\003\220A\316\256a@L\332\234@\245m\215A/|j@\\\356\246@\010\n\213A=lt@\213\266\261@+\334\210A\354\205\177@p?\275@ \350\206A\002\351\205@m\225\311@\2362\205As\255\214@]\304\326@\027\301\203A$\026\224@+\327\344@\313\231\202Ar)\234@O\327\363@\340\303\201A\010\356\244@\025\346\001AzG\201A\245j\256@\033]\nA\311-\201A\315\245\270@\tQ\023A\"\201\201Am\245\303@\246\277\034A\001M\202Ajn\317@y\243&A\020\236\203A\021\004\334@\367\3620A\026\202\205Atg\351@\204\237;A\322\007\210A\235\226\367@d\224FA\300>\213A\320E\003A\205\265QA\2616\217A\311\035\013AG\336\\A9\377\223A\242J\023AM\340gA\342\246\231A\000\300\033Ao\202rA\030:\240A\013m$A\020\200|A\317\301\247A\277;-Az\304\202A\332A\260AD\0206A\004\241\206A\373\266\271Aq\310>A\237\243\211A\306\024\304A\206;GA\177\227\213A\177C\317AE:OA\246G\214A2\036\333A\223\217VAg\202\213AWq\347A\262\001]A\301\035\211A{\372\363AGTbAG\374\204A\2454\000B\033KfAD$~A21\006B\237\255hA\317\322nA\025\302\013B\361JiA\330I\\A\244\266\020B\010\376gA\214\001GAG\342\024B\225\261dA\301\237/A| \030B\000c_A\007\355\026AfX\032B\000$XAO\211\373@2\177\033Bx\032OA\211\003\312@\342\230\033Bf~DA\030\331\232@K\267\032B6\2268A3\252^@\200\367\030B\331\261+A\243\321\020@!~\026BM%\036A\305\217\232?Hs\023B^C\020A\005\217\243>\307\376\017B\024Y\002A\344U\317\276$E\014B\233T\351@m\007z\277\252e\010BA\337\316@\267\260\264\277|y\004B\351\252\265@Q=\335\277\220\223\000BI\370\235@\037$\371\277s\202\371A\301\361\207@2f\005\300\"\026\362A#\\g@K6\n\300\357\353\352A\030gB@\016\375\013\300\036\010\344A\256\366 @~\221\013\300(k\335A\020\351\002@<\247\t\300\027\023\327A\252\033\320?\362\320\006\300\220\374\320A\202U\240?\350\203\003\300\220#\313A\301\376k?\022\034\000\300\351\203\305A\332&!?-\300\371\277\225\031\300AC,\276>K\n\364\277\334\340\272A<\024\023>\312d\357\277q\326\265AI\223l\275\345\007\354\277p\367\260A\333\rr\276\354\032\352\277aA\254A\001\221\312\276\235\270\351\277(\262\247A-\346\t\277\267\362\352\277\001H\243AM\031+\277\360\324\355\277r\001\237A(\216I\277\\g\362\277D\335\232Aj\341e\277Z\260\370\277v\332\226A\254P\200\277\016[\000\300=\370\222A\235\'\215\277\356?\005\300\3715\217Ap\260\231\277j\013\013\3009\223\213A\024!\246\277}\303\021\300\262\017\210AE\253\262\277\316o\031\300E\253\204AM}\277\277\344\031\"\300\002f\201A\300\302\314\277X\315+\300G\200|A%\245\332\277\370\2276\3006tvA\237L\351\277\345\211B\300(\251pA\212\340\370\277\244\265O\300\370 kA\002\304\004\30050^\300\030\336eA:\265\r\300\026\021n\300\251\343`A\003X\027\300Hr\177\300\2255\\A\n\301!\300&8\211\300\263\330WA\304\005-\300\002\225\223\300\354\322SA\227<9\300M\340\236\300d+PA\376|F\300\234+\253\300\264\352LA\235\337T\300Y\211\270\300\"\033JAR~d\300z\014\307\300\351\310GA/tu\300(\310\326\300\200\002FA\263\356\203\3003\317\347\300\367\330DA\215\353\215\300d3\372\300P`DA\211\277\230\300G\002\007\301\344\257DA\243y\244\300\251\247\021\301\314\342EA\233(\261\300\312\r\035\301A\030HA\200\332\276\30075)\301\373sKA\030\234\315\300\333\0316\301j\036PA\016x\335\300n\261C\301\321DVA\360u\356\300\227\351Q\301\026\031^AnL\000\301\267\245`\301.\321gA\365\356\t\301_\274o\301\364\245sA\032\035\024\301\217\364~\301\240\350\200A?\314\036\301m\001\207\301}E\211AN\353)\301bC\216\301q\002\223AAa5\301U\004\225\301s2\236A\230\013A\301\201\374\232\301\361\336\252A\357\274L\301\300\330\237\301k\003\271A\313;X\301\254<\243\301\202\210\310A\362Ac\301\254\306\244\301\357>\331A\260|m\301o\026\244\301$\333\352AN\216v\301\335\325\240\301\246\362\374A?\021~\301*\304\232\3017~\007B\224\316\201\301\361\301\221\301\321*\020B\352f\203\301v\334\205\301\305%\030B\336\245\203\301\365\252n\301Q\025\037B\241j\202\301\377IM\301\311\250$BUG\177\301\337\345(\301j\242(B\375\243v\301\247\020\003\301\264\337*BA\025k\301\312\347\272\300\031^+B\205\353\\\301z\202f\300\331:*B:\227L\301V \307\277\327\255\'B\351\236:\301\002\214u>\265\000$B3\223\'\301w{\340?U\204\037B\360\002\024\301\307\276>@$\207\032B\023q\000\301\257\310{@\306M\025B\031\233\332\300\001\227\224@\001\017\020B\343\342\265\300\334\237\244@\235\362\nB6<\223\300T;\257@\204\022\006B\036\372e\300\240\232\265@\"}\001B\225\250*\300\304\320\270@qp\372AWB\351\277\222\311\271@)\207\362AG\236\207\277\263G\271@\2356\353A\025\307\277\276\n\347\267@\rs\344A\310Is>Q!\266@9/\336A\247qH?{S\264@\363]\330A\211T\242?\013\303\262@\020\363\322A\032\232\331?\345\242\261@\344\343\315A\271r\005@g\027\261@q\'\311A\210\205\033@\3319\261@b\266\304A&j/@)\033\262@\363\212\300A\221~A@\031\306\263@\311\240\274A\207\031R@\366@\266@\306\364\270A^\212a@\343\216\271@\346\204\265A\034\031p@\330\260\275@\025P\262A\304\006~@W\246\302@\027V\257A\341\306\205@\357m\310@q\227\254A/q\214@\217\005\317@S\025\252A\237\031\223@\256j\326@\222\321\247A\355\324\231@X\232\336@\231\316\245Ax\265\240@\031\221\347@j\017\244An\313\247@\314J\361@\226\227\242A\370$\257@W\302\373@=k\241AN\316\266@\243x\003A\010\217\240A\315\321\276@\251g\tA)\010\240A\3647\307@\354\250\017AS\334\237AX\007\320@\2305\026A\251\021\240A\207D\331@\372\004\035A\263\256\240A\337\361\342@\033\014$A?\272\241AN\017\355@T=+A<;\243A\n\232\367@\342\2072A\2108\245A\033F\001Au\3279A\252\270\247A>\356\006A\321\023AA\200\301\252A\314\276\014A\201 HA\323W\256A\370\256\022A\247\334NA\331~\262A\211\263\030A\002#UA\2407\267A\257\276\036A3\312ZAh\200\274A\326\277$A\\\245_A\363S\302A\227\243*A\"\205cA\320\250\310A\276S0A.9fA\266p\317A}\2675A0\222gA\372\227\326A\302\263:AVdgAC\005\336A\320+?A<\212eA\206\231\345A\016\002CA\r\350aAq0\355A\016\031FA\261n\\AP\241\364A\322THA\235\036UAx\300\373A3\234IA\367\tLA\2300\001B`\332IA\235UAA\001,\004BM\000IA\30185A\232\276\006B\362\005GA\364\372\'A\251\327\010B?\353CA\237\360\031A\245j\nB\225\270?A6v\013A\377o\013B\277~:A$\325\371@~\345\013BTV4AMR\335@3\316\013B\234^-AW\t\302@\3541\013B\004\274%A\256\205\250@^\034\nBM\226\035A\0353\221@\003\234\010B\240\026\025A\314\266x@\360\300\006B\273e\014A\310MT@\266\233\004BN\252\003AT?5@e<\002BP\017\366@\257l\033@\261c\377A\2369\345@\245\217\006@s\022\372A\326\007\325@\224\214\354?\207\233\364A+\244\305@\305;\324?m\021\357A\330.\267@\2068\303?\352\202\351A\306\276\251@\225\216\270?j\373\343Avb\235@\352T\263?\200\203\336A#!\222@?\265\262?h!\331A\364\373\207@\253\360\265?\204\331\323AZ\336}@\311a\274?\320\256\316A\233\346m@%}\305?>\243\311A4\374_@c\320\320?\003\270\304A\000\007T@\231\000\336?\327\355\277A\273\354I@8\310\354?\036E\273AE\222A@\276\364\374?\017\276\266A\256\334:@32\007@\313X\262A\010\2625@\367\201\020@q\025\256A\006\3721@If\032@)\364\251As\236/@\030\341$@2\365\245A\204\213.@\334\370/@\345\030\242A\r\260.@\351\267;@\300_\236A\243\375/@\331+H@h\312\232A\250h2@\024eU@\267Y\227AM\3505@ivc@\271\016\224A\203v:@\277tr@\276\352\220A\357\017@@f;\201@]\357\215A\322\263F@k\312\211@\202\036\213A\354cN@=\364\222@vz\210A`$W@7\306\234@\363\005\206A\225\373`@\036N\247@1\304\203A\014\362k@\371\231\262@\366\270\201A=\022x@\331\267\276@]\321\177A1\264\202@\232\265\313@\377\260|A\"\001\212@\205\240\331@\304\034zAy\367\221@\344\204\350@u\"xA7\237\232@om\370@\352\321vA\243\000\244@G\261\004A==vA\007$\256@\272\264\rA\375xvA_\021\271@}A\027AU\234wA\356\317\304@ U!A,\301yA\303e\321@{\351+A%\004}A\025\327\336@\270\3636AA\302\200A\204%\355@!cBA\352\261\203A1O\374@\337\037NA\262b\207A\323&\006A\203\tZA\242\346\213AK\212\016A\227\365eAvO\221A9H\027A\'\256qA\240\255\227AjR A\221\360|A\376\016\237An\225)A^\266\203A)}\247A\303\3672A\205b\210An\373\260A\027Y<A\271G\214Ap\204\273A\271\221EA\t,\217A\231\007\307A\\rNA\333\322\220A\213f\323AK\304VAI\000\221A\360r\340ARJ^A\247}\217A#\355\355Al\302dA\002\037\214A&\204\373Aa\350iA*\311\206A\310k\004B`ymA-\357~A\337\275\nB[8oA@\202lA8\200\020B\362\362nA\341\264VA\276|\025BV\206lAf*>AF\204\031B\213\343gA\364\266#AJs\034BI\022aA\004O\010A\2535\036B\3651XA\210\343\331@\247\310\036BWxMAD#\245@\257:\036B\021.AAJ\374g@\375\250\034B^\2513A*d\017@\212;\032B\274G%A\316)\204?\" \027B|g\026A\251\014A<\212\205\023B\366a\007A\313\267R\277w\227\017B\t\016\361@;\330\275\277\306{\013B\0074\324@L2\376\277\nQ\007B\304\240\270@\006\221\026\300O.\003B\n\243\236@y\304&\300YG\376APo\206@\254\0331\300\263v\366A\227E`@\003\3436\300\337\365\356AU\2167@}@9\300H\311\347A\331\254\022@\227/9\300\274\360\340Ai\372\342?\247\2017\300$i\332A=\224\247?\344\3404\300\316-\324AyJe?\344\3241\300_9\316A\254:\007?\222\307.\300g\206\310A\200-O>-\n,\300\305\017\303Aw\233\261\275\331\331)\300\331\320\275A\250\327\257\276\276c(\300\227\305\270A$|\022\277\225\310\'\300\220\352\263A)\363F\277\252\037(\300\347<\257A\351Mv\277^y)\300E\272\252AU\273\220\2776\341+\300\316`\246Aq\242\244\277\215_/\300\013/\242A\351>\267\277\356\3723\300\352#\236A\316\352\310\277%\2719\300\250>\232AZ\370\331\277\031\240@\300\326~\226A\274\262\352\277v\266H\300K\344\222A\365^\373\277/\004R\300\'o\217AY\036\006\300\331\222\\\300\325\037\214A\231\303\016\300\363mh\300\014\367\210A\010\273\027\300\024\243u\300\324\365\205A\n\037!\300\002!\202\300\221\035\203A\357\010+\300c.\212\300\tp\200AR\2215\300\303\003\223\300\355\336{AW\320@\300C\254\234\300#=wA\365\335L\300\3613\247\300H\001sA&\322Y\300\244\247\262\300@3oA\020\305g\300\302\024\277\300f\334kA\034\317v\300\374\210\314\300\312\007iA\177\204\203\300\344\021\333\300e\302fA\326E\214\300m\274\352\300W\033eA\030\270\225\300C\224\373\3001$dA\266\347\237\300y\321\006\3013\361cA\326\340\252\300iw\020\301\222\231dA\t\257\266\300\325\274\032\301\2627fA\346\\\303\300\207\237%\301S\351hA\203\363\320\300(\0311\301\245\317lA\313y\337\300\n\036=\3014\017rA\237\363\356\300\270\233I\301\227\317xA\316`\377\300TwV\301f\235\200A\345]\010\301\307\213c\301\024\276\205A\025|\021\301\334\247p\301S\337\213Av\000\033\301Z\214}\301H\025\223A@\333$\3012\365\204\301\033q\233A]\366.\301/\261\212\301\332\376\244A]49\301\347\301\217\301\343\302\257A\202oC\301T\347\223\301\314\266\273A\006yM\301X\333\226\301\024\306\310A\312\030W\301\273T\230\301\316\312\326A\250\r`\301\247\013\230\301\332\212\345A\237\016h\301\273\277\225\301B\266\364A\033\315n\301[?\221\301\304\363\001Bw\370s\301\256o\212\301VS\tB\301Bw\301\033T\201\301\2617\020B\200fx\301\270\'l\301F]\026B\006-w\301$\370Q\301\032\205\033B\211ts\301\027\3724\301B{\037B\0275m\301\243D\026\301\311\034\"Br\203d\301}\030\356\300\300[#B \221Y\301\306\010\261\300\224@#Bs\251L\301\032\005o\300N\350!B\325+>\301\373|\006\300\020\200\037B-\204.\301\002?+\277\324>\034B\215\"\036\301\tT\013?\306^\030B_s\r\301u\245\304?a\027\024B\356\261\371\3000d\024@5\231\017BTN\331\300z[:@\205\013\013B\354A\272\300\004\341U@\265\213\006B\024\360\234\300\232\274h@\351-\002Bq\233\201\300\253\254t@\366\374\373AT\323P\300\341K{@e\007\364A5\320\"\300\371\002~@\345~\354A\372B\362\277\273\003~@oa\345A\211;\247\277\004J|@}\251\336A[\032H\277[\240y@\310O\330A\364{\240\276<\246v@xL\322A\352\210\323=\334\326s@\352\227\314A\261\252\362>\257\217q@\033+\307A\026\323M?Q\026p@\353\377\301At\243\214?\256\235o@&\021\275Aq\177\256?TJp@\212Z\270A*\033\315?\0316r@\260\330\263A\253\t\351?\006su@\373\210\257Ati\001@\275\rz@\202i\253A\342y\r@\256\007\200@\375x\247A;\357\030@}\277\203@\262\266\243A\233\375#@d1\210@m\"\240A\205\324.@y`\215@s\274\234A]\2379@\034P\223@\200\205\231A\331\205D@,\004\232@\306~\226A\200\254O@&\201\241@\361\251\223A\0245[@.\314\251@+\t\221A\002?g@\006\353\262@$\237\216A\266\347s@\361\343\274@!o\214Aw\245\200@\207\275\307@\007}\212Ax\301\207@o~\323@i\315\210A^T\217@\t-\340@\237e\207A\tj\227@\367\316\355@\321K\206A\272\r\240@\216h\374@\017\207\205A\002J\251@\020\376\005A_\037\205A\237(\263@\223D\016A\320\035\205AF\262\275@\224\005\027A\200\214\205A]\356\310@I< A\240v\206A\225\342\324@\230\340)Am\350\207Ar\222\341@D\3463A\026\357\211A\247\376\356@\373;>A\215\230\214Ab$\375@H\312HA:\363\217A3\376\005A\200rSA\213\r\224A\010\275\rA\243\r^AN\365\230A\027\305\025A_khA\334\266\236A\353\010\036AIQrA\375[\245A\216v&Azz{A\220\352\254A\363\366.A\352\313\201A\354b\265Apm7A\223(\205A\023\276\276Ah\267?A\277\243\207A\303\353\310A7\254GAs\014\211A\253\320\323A|\035OA\3422\211A\340D\337A\351\327UA\340\353\207A\r\023\353A\262\244[A\002\025\205A\237\370\366A\241K`A\013\231\200A\250S\001B\340\225cAl\350tA0\344\006BTQeA9oeA\267\000\014BQTeA\027\026SA`}\020BL\201cA*Y>A33\024B\025\312_A\010\333\'A\222\003\027B-2ZA\213Y\020A\030\333\030B\267\317RAZ=\361@T\263\031B\317\312IA`\337\302@\016\223\031BL[?A\023\372\226@\000\215\030B\022\3053AkV]@C\275\026B\206S\'A\214{\025@\374E\024B\251T\032A\365\225\256?\305K\021Bx\024\rA\333\"\014?z\362\rB\025\262\377@\316\032\362\275\302Z\nBn\277\345@4\274$\277w\240\006B\274\266\314@N\207\205\277\375\331\002B{\347\264@\360\310\252\277\2050\376AO\213\236@Wb\304\277\217\316\366A\270\307\211@\361\177\324\277\315\235\357A\031am@\010\"\335\277m\247\350A\257\225J@\254\016\340\277\276\357\341A\225\037+@)\314\336\277\256w\333A\004\337\016@g\241\332\277\363=\325A\027N\353?\006\232\324\277\362?\317A\256\203\276?\203\214\315\277iz\311Av\350\226?E!\306\277\335\351\303A,\002h?\277\331\276\277\343\212\276A5\243*?.\027\270\277GZ\271A\346\202\351>\302 \262\277%U\264A\265\350\212>\001)\255\277\354x\257A#\004\337=qR\251\277^\303\252A\304f\014\275\206\263\246\277\2072\246A\212\363$\276\354Y\245\277\272\304\241A]^\214\276;M\245\277\202x\235A\322s\300\276&\221\246\277\240L\231A\177\325\357\276B\'\251\277\375?\225A\206\301\r\277o\020\255\277\251Q\221Av1\"\277\363M\262\277\323\200\215A\201\2425\277[\342\270\277\311\314\211A\271rH\277)\322\300\277\3614\206A\257\367Z\277]$\312\277\314\270\202A\312\177m\277\334\342\324\277\351\257~A\312)\200\277\315\032\341\277:$xA~\333\211\277\333\334\356\277*\316qA:\365\223\277q=\376\277\216\255kA\r\226\236\277y\252\007\300\200\302eAW\334\251\277\365\037\021\300b\r`AL\346\265\277\241\217\033\300\353\216ZAd\322\302\2779\014\'\3001HUA\314\277\320\277\326\2523\300\272:PA\311\316\337\277\013\203A\300\220hKA\035!\360\277\370\256P\300V\324FA3\355\000\300eKa\300a\201BA8\220\n\300\312ws\300\332s>A\307\r\025\3000\253\203\300\344\260:Ao{ \300\013\206\216\300\305>7AM\360,\300B`\232\300\034%4A\037\205:\300\333N\247\300\036m1AaTI\300\360g\265\300\335!/AUzY\300s\302\304\300\227P-A\375\024k\300\310u\325\300\031\t,A\013D~\300C\231\347\300\"^+AY\224\211\300lC\373\300\337e+A\247\362\224\300zD\010\301e:,A|N\241\300\256\275\023\301>\372-A_\271\256\300\230\023 \301\357\3100AZD\275\300\323H-\301y\3174AH\377\314\300\324Z;\301\277<:A\354\367\335\300\r@J\301\311EAA\2758\360\300\233\345Y\301\252%JA\261\343\001\301\206,j\301\374\034UA`Q\014\301\207\346z\301\240pbAJ`\027\3018\351\205\301\211grAN\005#\3010L\216\301\233\243\202A\235-/\301\021c\226\301B\247\215A\335\274;\301!\346\235\301=W\232A4\213H\301V~\244\301s\300\250AZcU\301\374\305\251\301f\336\270A\003\001b\301cK\255\301\237\224\312A\375\017n\301K\226\256\301\360\247\335As,y\301\2420\255\301\230\270\361Awr\201\301\304\262\250\301x\037\003BL_\205\301\243\322\240\301:F\rB\010\036\210\301 t\225\301\220\351\026Bps\211\301\254\267\206\301\037\232\037Bv-\211\301\240\006j\301)\353&B?)\207\301\202\004B\301\305\177,B\214X\203\301\0321\027\301\353\0270B\262\212{\301\371,\327\300P\2321Bz%m\301\305\203\202\300=\0301B\036\365[\301R\031\320\277%\312.B\037\220H\301\365g\014?\241\005+B\017\2413\301s \031@\222/&B\213\326\035\301\324\355x@\340\255 B\276\324\007\301\023\243\241@\356\333\032B\007U\344\300\355 \275@\205\003\025B\t\226\272\300\254]\320@IZ\017BC\027\223\300=\350\334@\302\002\nB\007\225\\\300RC\344@\216\017\005B\017\337\030\300\221\311\347@S\207\000B\024t\266\277\301\240\350@@\321\370AWP\016\277w\267\347@9Z\361A\334)e>\r\311\345@\362\227\352A\334ck?\206d\343@*w\344A\362\341\304?Z\364\340@ \345\336A\214\226\005@\340\305\336@\301\320\331A\253\310$@\304\017\335@6+\325A\216\204@@j\367\333@\023\350\320AaBY@9\225\333@<\375\314A0so@\357\367\333@\273b\311A\324\277\201@7\'\335@{\022\306A\304\343\212@\225%\337@\007\010\303A\300P\223@\324\361\341@N@\300A\250-\233@\024\210\345@h\271\275A\031\235\242@\203\342\351@mr\273A\244\275\251@\332\371\356@Ik\271A\020\252\260@\255\305\364@\235\244\267A\237y\267@\213<\373@\243\037\266AQ@\276@\003*\001A\031\336\264A\026\017\305@P\000\005A*\342\263A\n\364\313@\315\032\tA_.\263A\231\372\322@]r\rA\207\305\262A\234+\332@\005\377\021A\247\252\262At\215\341@\274\267\026A\342\340\262A\016$\351@C\222\033A`k\263A\346\360\360@\367\202 A0M\264A\001\363\370@\250|%A!\211\265Ak\223\000Arp*A\233!\267A\037\303\004A\243M/Al\030\271A,\004\tA\256\0014A\222n\273A\271P\rA2x8A\373#\276Ax\241\021A\034\233<AC7\301A\242\355\025A\340R@Al\245\304A\365*\032A\342\206CA\231i\310A\300M\036A\376\035FA\313|\314A\371H\"AC\377GA\253\325\320Ag\016&A\323\022IA^h\325A\330\216)A\356BIA|&\332At\272,A\031}HA\031\377\336A\036\201/AP\263FA\375\336\343A\360\3221A=\335CA\005\261\350A\305\2403A?\371?A\251^\355A\321\3344AJ\r;A\271\320\361AC{5A[\'5A.\360\365A\337r5A\220].A\035\247\371A\213\2754A\261\315&A\255\341\374A\302X3AA\234\036A\371\216\377A\350E1A\013\363\025A\354\320\000Bk\212.AN\377\014A\265\210\001B\265/+A\263\357\003A\263\354\001B\350B\'AD\344\365@\021\375\001Bn\324\"A\211c\344@!\274\001B]\367\035A\205\252\323@\".\001B\301\300\030A\337\372\303@\340X\000B\322F\023A\347\210\265@\237\206\376A/\240\rA\345z\250@G\352\373A\034\343\007AY\351\234@\304\354\370A\336$\002A\376\337\222@\035\236\365A\\\362\370@j_\212@\300\r\362A\252\343\355@\370^\203@\023J\356A\314<\343@\306\235{@/`\352A4\030\331@\2554s@\277[\346A\236\213\317@\242Rm@\364F\342A0\250\306@\234\304i@\230*\336A\315z\276@JWh@&\016\332A|\014\267@4\331h@\357\367\325A\345b\260@Q\034k@I\355\321A\322\200\252@\033\367n@\265\362\315A\262f\245@8Et@\t\014\312A\026\023\241@\302\347z@\225<\306A*\203\235@\252b\201@C\207\302A\036\263\232@\354\344\205@\266\356\276A\177\236\230@ \363\212@bu\273A\217@\227@\010\210\220@\243\035\270A\202\224\226@t\240\226@\313\351\264A\263\225\226@\003;\235@<\334\261A\325?\227@\330W\244@k\367\256A\010\217\230@V\370\253@\370=\254A\367\177\232@\332\036\264@\261\262\251A\332\017\235@n\316\274@\246X\247A\203<\240@~\n\306@,3\245AO\004\244@\205\326\317@\357E\243A!f\250@\2725\332@\367\224\241AJa\255@\255*\345@\260$\240Am\365\262@\341\266\360@\366\371\236A_\"\271@X\332\374@\033\032\236A\370\347\277@\204\311\004A\346\212\235A\340E\307@(n\013A\224R\235AR;\317@#W\022A\330w\235A\321\306\327@\202~\031A\310\001\236A\326\345\340@\354\333 A\316\367\236Ao\224\352@6d(A\205a\240A\326\314\364@\356\0100A\221F\242A\360\206\377@\347\2677A\\\256\244A\351[\005A\314Z?A\314\237\247A\232(\013A\302\326FA\332 \253Aj \021A&\014NA\0246\257A\3757\027Aq\326TA\017\342\263Aoa\035Ae\014[A\265$\271A!\214#A\205\200`A\216\372\276A\222\244)A\370\001eA\373[\305AO\224/A\353]hAx<\314A\022B5A\177ajA\362\211\323A\003\222:AB\334jAU,\333A=f?A1\243iA]\005\343A\210\237CA\r\224fA\322\360\352Ab\036GA\344\230aAF\305\362A<\304IAV\253ZAgU\372A\362tKAN\327QA\356\270\000Bb\030LA\247<GA\321\365\003B\002\234KAb\017;Ac\313\006BY\364IA)\226-A\220&\tB!\036GA\t\'\037An\370\nB\005\037CA\237\"\020A57\014B\307\005>A\"\356\000A\326\336\014B\320\3517A\004\332\343@\007\361\014B\"\3520A\237\365\306@\330t\014B\315+)AO\314\253@\332u\013B\t\330 AD\332\222@\363\002\nB%\032\030A\"\356x@\024-\010B|\035\017A&\253Q@\366\005\006B\235\013\006A\236\r0@\374\236\003B\226\025\372@\330\375\023@T\010\001B\271y\350@ym\372?\321\240\374A\026}\327@\206\245\326?\026\007\367AQN\307@i\260\273?\305W\361AK\021\270@\220\207\250?\t\243\353A\301\337\251@i\"\234?R\365\345A=\312\234@%\203\225?\345W\340AK\331\220@}\277\223?e\321\332A\300\016\206@\n\006\226?kf\325A\016\316x@\335\240\233?\373\031\320A\261\264g@\016\366\243?\370\355\312A\272\273X@\343\206\256?p\343\305AL\311K@\004\356\272?\353\372\300A\021\301@@/\335\310?\2234\274A\237\2057@\262\032\330?d\220\267A\230\371/@\326~\350?A\016\263A\223\000*@t\361\371?\010\256\256A\312\177%@\3333\006@\241o\252A\231^\"@\007\361\017@\007S\246A\327\206 @D5\032@MX\242A\025\345\037@\240\t%@\251\177\236A\275h @\227z0@t\311\232A\037\004\"@\224\227<@/6\227Ax\254$@\201rI@\217\306\223A\337Y(@|\037W@|{\220A<\007-@\223\264e@\034V\215A+\2622@\211Iu@\334W\212A\347Z9@\330\373\202@z\202\207A/\004A@\336\354\213@\021\330\204A#\263I@\313\205\225@\'[\202A.oS@\026\325\237@\273\016\200A\341A^@\232\351\252@\265\354{A\3206j@g\322\266@k,xAi[w@\215\236\303@f\346tAd\337\202@\323\\\321@\030&rA\274\270\212@M\033\340@\320\370oA\227B\223@\336\346\357@\360mnA8\206\234@Ee\000A-\227mA\r\215\246@Pg\tA\310\210mAh`\261@\322\373\022A\312YnA\"\t\275@~\"\035A)$pA\036\217\311@\245\327\'A\353\004sA\274\370\326@:\0233A\034\034wA\033J\345@\246\307>A\246\214|A:\204\364@o\340JA\357\275\201A\362Q\002A\262@WAc\010\206A8\320\nA\200\301cAj9\213A&\265\023A50pA\032d\221A\247\364\034A\344L|A\250\231\230Az}&A\217\344\203A\305\347\240A>80A\247#\211A\232V\252A\214\006:A\224\255\215AG\346\264A5\302CA\272E\221A\032\214\300A\274<MA\371\252\223A\234/\315AA?VA\302\232\224A\320\247\332A\025\213^A\211\325\223A\010\271\350A\024\333eA}$\221A\007\024\367A\022\346kA.`\214A\177\253\002BLbpAxw\205A\200\210\tB\366\tsAj\353xA\'\344\017B\202\240sA\253\rcA\236\201\025B9\370qAa\360IA\203)\032Bp\367mA)j.A~\257\035B\203\234gA\321}\021A\026\367\037B\327\377^A\327\206\350@\321\366 BfSTAJ\233\257@\346\270 B\240\337GAK@t@HY\037B\022\3769A\307+\023@\204\001\035B\216\022+Ay\367w?H\343\031B\331\203\033A\253\226$\276\2512\026B\324\264\013A\276,\213\277/!\022B\371\375\367@B%\351\277D\332\rB>]\331@Ol\030\3007\201\tB\264\001\274@2\2362\300\2760\005BlF\240@_\300D\300z\373\000B\366h\206@\246dP\300Z\332\371AD\031]@\030\377V\300`\030\362A;}1@\370\330Y\300\311\265\352A\234\364\t@\223\013Z\300\371\261\343A\374\265\314?\202\200X\300\371\010\335A|\360\214?&\365U\300\r\265\326A\235\033(?\335\377R\300\277\257\320Ai\313\205>\302\025P\300\231\362\312A\'6\270\275e\220M\300\221w\305A\031\346\315\276\007\263K\300F9\300A[\".\277D\257J\300\0243\273Am\313m\277\r\251J\300\026a\266A\'\212\223\277\004\272K\300!\300\261A\360\207\255\277A\364M\300\255M\255Ae^\305\277\232dQ\300\313\007\251A\255\202\333\277p\024V\300\016\355\244A\031`\360\277,\013\\\300\200\374\240A\\,\002\300_Oc\300\2305\235A\020\343\013\300\247\347k\3001\230\231A\037}\025\300[\333u\300\206$\226A% \037\300\204\231\200\3000\333\222A\325\356(\300c\374\206\300(\275\217Am\t3\3009\034\216\300\320\313\214A!\216=\300\337\377\225\300\364\010\212A}\231H\300\027\257\236\300\331v\207A\302FT\300\1772\250\300I\030\205A/\260`\300o\223\262\300\236\360\202A@\357m\300\315\333\275\300\335\003\201A\343\034|\300\313\025\312\300\177\255~A\307\250\205\300\224K\327\300\245\335{A\250\322\215\300\331\206\345\300\023\245yA\340\227\226\300D\320\364\300\265\022xA\352\003\240\300b\227\002\301\2547wA\315!\252\300US\013\301\205\'wA\343\373\264\300H\234\024\301^\370wA\216\233\300\300\003p\036\301\t\303yA\315\010\315\300\375\310(\301\025\243|A\270I\332\300c\2353\301^[\200A\323a\350\300\003\336>\301R\017\203A?Q\367\300\003uJ\301\254~\206A\334\211\003\301\203DV\301@\273\212A\272\317\013\301#%b\301\321\326\217A\336q\024\301\224\344m\301*\342\225A\275c\035\301HDy\301\363\353\234A\313\223&\301E\374\201\301\037\377\244A\253\352/\301\026\324\206\301\006!\256AkJ9\301\241\366\212\301 O\270A\347\215B\301\224+\216\301\210|\303Am\210K\30167\220\301k\217\317A\324\005T\301c\335\220\301\270^\334A\037\313[\301\255\345\217\301z\260\351A\362\227b\301\215 \215\301b9\367A\334(h\301Gm\210\301\002O\002B\241:l\301\333\277\201\301&\273\010BV\216n\301eLr\301\251\251\016B%\356n\301\246\226]\301\263\343\023B22m\301V\357E\301\2777\030B\034Ei\301Y\033,\301t~\033BU\'c\301k\005\021\301\265\236\035B\276\360Z\301\006T\353\300=\220\036B\021\320P\301z\000\266\300\032\\\036B\026\010E\301\177\307\203\300\373\032\035B\332\3527\301\025\r,\300\243\361\032B\261\323)\301\331\262\266\277/\014\030B\302 \033\301\315d\263\2766\231\024B\000-\014\301ML\n?q\305\020Br\226\372\300\016U\240?\214\270\014BF\205\335\300-\263\346?T\223\010B\336\231\301\300\226j\r@\030o\004B\215+\247\300I\310\037@\002^\000B\310v\216\300w\335+@\014\330\370A\251?o\300\257\3762@7@\361A\240lE\300,]6@\362\372\351A\014r\037\300\325\0007@m\t\343A\267f\372\277J\3075@oi\334Ac\001\275\277.f3@\306\026\326A\2349\206\2773o0@O\014\320A\005\010+\277\362T-@\247D\312A\3410\251\276\337o*@\233\272\304A\202\301\376\274\375\002(@ii\277A\235(p> @&@\337L\272A`\022\361>\232K%@aa\265A\266\231.?l?%@\350\243\260AO=_?\351-&@\365\021\254A\222\261\205?\352#(@\204\251\247A\314\363\231?\231*+@\377h\243AV\312\254?\342H/@1O\237A{\221\276?\237\2044@9[\233Au\235\317?\201\343:@\207\214\227A6;\340?\307kB@\323\342\223A?\261\360?\315$K@\036^\220A>\240\000@u\027U@\257\376\214A\220\022\t@vN`@\025\305\211A\300\313\021@\221\326l@0\262\206Ao\346\032@\265\276z@3\307\203A\020|$@\010\014\205@\257\005\201AC\245.@\003{\215@?\337|A#z9@\024\267\226@\357\016xA\212\022E@\004\314\240@e\240sAJ\206Q@|\306\253@\316\232oA[\355^@\333\263\267@\271\006lA\376_m@\364\241\304@K\356hA\311\366|@\275\236\322@w]fAT\345\206@\332\267\341@;bdAa\372\217@\021\372\361@\337\014cA&\307\231@A\270\001ABpbA\025X\244@\340\021\013A\026\242bA@\271\257@H\014\025A+\273cA\373\365\273@<\247\037A\241\327eAn\030\311@\356\336*A\020\027iA\371(\327@\345\2526A\213\234mAt-\346@\244\374BAw\216sA=(\366@$\276OA\033\026{A\205\213\003A\016\320\\Af/\202A\306x\014A\332\007jAM\312\207A\342\323\025A\331-wA+q\216A\024\220\037A\255\375\201Ab7\226A\316\232)A\232\014\210At,\237A\245\3323A~\217\215A\240Y\251AH.>A\275I\222A\006\277\264A\231kHAh\367\225A]P\301A\037_RA\203O\230A\205\361\316A\351\313[A\266\007\231AMs\335ACldA\236\331\227A\005\221\354A\\\363kA\233\211\224A\240\357\373A%\020rA\265\356\216A\220\217\005ByqvA\262\372\206A\221\317\014Bw\313xA&\202yA\\s\023B\273\335xA\247\366`A\2617\031B\323yvA\332\021EA\007\341\035B\007\211qA0\324&A\006B!B\213\020jA\261j\007A\325@#B(3`Ap$\320@\022\332#B\335/TA_\357\223@\255 #Br]FA\331l8@\270:!B\237#7A\253\332\251?\302[\036B\313\362&Ag\226R\274\030\276\032B\246;\026AFX\220\2777\234\026B\310g\005A\272t\001\300~+\022B+\250\351@\363\276-\300\320\230\rB\233\232\311@\t\226N\300\023\007\tB>\035\253@\241\277e\300F\217\004B\360\203\216@\224\nu\300\247A\000B\010\006h@\305,~\300\274N\370AZg7@nW\201\300\212\210\360A\3561\013@{\361\201\300\0231\351A\341\222\306?\211q\201\300\024D\342A\302\340}?(J\200\300\271\272\333A\204\267\373>\273\254}\300\027\215\325A\325\327<=\036\272z\300)\263\317A6V\263\276\335(x\300b%\312A$\3673\277XJv\300\013\335\304A\025>\202\277\210Zu\300\\\324\277A\373I\246\277\322\204u\300\207\006\273A\214\303\306\277\014\350v\300\255o\266A\315D\344\277\311\231y\300\307\014\262A\256\\\377\277\013\251}\300\224\333\255AiG\014\3001\220\201\300\200\332\251A\350)\030\300\316\003\205\300\222\010\246A\341\214#\300\2152\211\300`e\242A\200\242.\300b\037\216\300\000\361\236A\207\2309\300c\315\223\300\005\254\233A\300\230D\300\n@\232\300{\227\230A|\311O\300W{\241\300\351\264\225A\001N[\300\345\203\251\300R\006\223A\374Fg\300\350^\262\300C\216\220A\335\322s\300\020\022\274\300\326O\216A\030\207\200\300g\243\306\300\303N\214A\355\211\207\300\017\031\322\300k\217\212A\244\376\216\300\360x\336\300\354\026\211AE\361\226\300H\310\353\3000\353\207A,m\237\300%\013\372\300\376\022\207A\370|\250\300\333\241\004\301\013\226\206Aq*\262\300\277\270\014\301\010}\206AY~\274\300*H\025\301\256\321\206A%\200\307\300\234K\036\301\277\236\207A\2475\323\300w\273\'\301\000\360\210A\225\242\337\3009\2141\301\037\322\212A\370\307\354\300\215\255;\301\216R\215A{\243\372\300T\tF\3018\177\220AM\227\004\301\232\202P\301\026f\224A\324.\014\301\202\364Z\301\236\024\231Af\017\024\301T1e\301\365\226\236Ad,\034\301\260\001o\301\355\366\244A\354t$\301($x\301\277:\254A>\323,\301\263&\200\301\206c\264AB,5\301\222\224\203\301\216k\275A&_=\301\035.\206\301~D\307AAEE\301\376\303\207\301\224\325\321AT\262L\301\215\'\210\301#\372\334A5uS\301\000.\207\301\253\200\350A\026YY\301D\264\204\301\322*\364An\'^\3017\243\200\301\244\256\377A\210\252a\301\212\347u\301\254\\\005B\241\260c\301\312dg\301\325y\nBr\017d\301P\002V\301\323\003\017B\274\247b\301\215/B\301\253\323\022B\204h_\301z\202,\301\274\311\025B\203QZ\301\340\255\025\301\250\320\027BYtS\301+\347\374\300>\337\030BE\364J\301=)\317\300\016\371\030BN\004A\301\353\202\243\300\204-\030B\005\3445\301\3423v\300\272\225\026BQ\333)\301\357\216-\300mQ\024B\3025\035\301\246D\334\277\225\203\021B\n>\020\301\260aa\2779O\016B\014:\003\301v\001A\276\340\324\nB\260\317\354\300\277$\272>\3250\007B}\367\323\300H\372I?Cz\003B\320>\274\300\325C\215?*\206\377A\243\343\245\300\014\206\251?\2330\370A\354\017\221\300\177\344\273?y\005\361A\242\267{\300\004\\\306?\235\017\352A\253\240X\300\010\265\312?\273T\343AZ\3248\300\352{\312?\330\326\334A\3538\034\300\253\377\306?\200\225\326Ar\246\002\300\314T\301?\264\216\320AR\326\327\277\237Z\272?\240\277\312A:\236\257\277\302\301\262?\024%\305A:.\214\277\361\022\253?\324\273\277A8\034Z\277\231\265\243?\311\200\272A\256\216#\277\362\365\234?\035q\265Ar\236\347\276j\n\227?E\212\260Ao\n\224\276X\030\222?\002\312\253A\350\230\025\276\3767\216?[.\247A\223\346\246\274\352w\213?\231\265\242A\310\230\271=\272\337\211?>^\236AV\321A>dr\211?\373&\232A[2\216>\t0\212?\252\016\226A\211@\267>n\027\214?I\024\222A\247\366\334> \'\217?\3636\216Ak\020\000?b^\223?\335u\212AA\273\020?\331\275\230?Q\320\206A\177\316 ?\036H\237?\260E\203A\022\2250?(\002\247?\336\252\177AeS@?\235\363\257?(\376xA\224HP?\036\'\272?t\204rA\213\257`?u\252\305? =lA\025\300q?\317\216\322?\270\'fA\353\327\201?\350\350\340?\365C`A\236Y\213?6\321\360?\311\221ZA-\177\225?\r2\001@e\021UA\336b\240?\n\341\n@=\303OA\227\037\254?\370\207\025@\034\250JA9\321\270?\204;!@(\301EA\001\225\306?\274\022.@\371\017AA\332\211\325?1\'<@\255\226<A\264\320\345?\020\225K@\371W8A\331\214\367?F{\\@KW4A\034r\005@\220\373n@\352\2300A\332\377\017@I\235\201@\033\"-A\272\205\033@\355\257\214@R\371)A\212\033(@\351\312\230@l&\'A\367\3325@\315\004\246@\352\262$A\241\337D@`u\264@B\252\"A$GU@e5\304@5\032!A\0331g@7^\325@8\023 A\n\277z@D\t\350@\341\250\037A\030\n\210@FO\374@r\362\037A\235\252\223@\233#\tA]\013!A\337S\240@m\002\025A\346\023#A\305\030\256@o\313!A\2651&A\307\013\275@(\202/As\220*A<>\315@\265$>A@b0AZ\277\336@\272\251MA\t\3407A\366\232\361@\342\375]A\200IAA\354\353\002A\310\000oA\224\344LA\317\272\rA\264@\200A,\374ZA\0215\031A\t\035\211A\302\335kA+O%A\017\346\221A\214\325\177AC\3651A\347]\232A\\\224\213A\036\t?At6\242A\266\006\231A\345_LA\215\020\251A\020P\250A\004\300YA\267|\256AOk\271A[\337fA/\376\261A}8\314ABbsA*\021\263A(u\340A\335\333~A\3564\261A\312\265\365A;h\204A\000\372\253A\036\261\005B5]\210A\217\023\243A\256[\020B\013\t\213A\027j\226A\035h\032BY,\214A\222+\206A\370[#B\254\222\213A9\251eA\303\301*BD\031\211A.\\:AE80B\362\264\204Afy\014A\033\2013Br\353|A^\216\274@\343\2124B8\016mA\313\373G@\005t3B~YZA%T\030?\337\2040BxwEA\362Y\316\277\326\",B\377#/A\204\344\\\300\326\277&B\257\032\030A:I\235\300{\312 B\216\007\001A\331\321\300\3003\242\032B\235\370\324@\177e\332\300\331\220\024B\232\325\251@a\256\353\300c\311\016BhH\201@\\e\366\300>j\tB\017n7@s%\374\300~\201\004B\271P\345?\231S\376\300\214\021\000BlNQ?\025\026\376\300\266*\370A\377Jn\275\364U\374\300d\007\361A\310EW\277\324\305\371\300(\243\352A\"\310\304\277\320\352\366\300\227\347\344Al\357\t\300\177%\364\300\257\277\337A\224\370,\300\006\272\361\300\314\030\333A\355\004L\300\346\326\357\300\007\343\326A\320\225g\300e\232\356\3003\021\323A\333\022\200\300\307\026\356\300\264\230\317A?\023\213\300\213U\356\3002q\314AG\000\225\300\320Y\357\300J\224\311A;\t\236\300\032\"\361\300F\375\306A\205X\246\300\241\251\363\300\323\250\304A\324\023\256\3005\351\366\300\306\224\302A^\\\265\300\342\327\372\300\346\277\300A\036O\274\300[k\377\300\302)\277A$\005\303\300\031L\002\301\214\322\275A\331\223\311\300\375(\005\301\364\272\274AC\r\320\300\241E\010\301\023\344\273AC\200\326\300\311\232\013\301PO\273A\313\370\334\300\234 \017\301D\376\272A\t\200\343\300\231\316\022\301\246\362\272A\215\034\352\300x\233\026\3014.\273Ac\322\360\300\030}\032\301\225\262\273A+\243\367\300dh\036\301>\201\274A!\216\376\300AQ\"\301T\233\275A\025\310\002\301\205*&\301\211\001\277A\355Q\006\301\360\345)\301\364\263\300A\272\340\t\3018t-\301\356\261\302Azo\r\301$\3050\301\342\371\304A\013\370\020\301\261\3073\301&\211\307A5s\024\301[j6\301\321[\312A\271\330\027\301l\2338\301\223l\315Ae\037\033\301rI:\301\230\264\320A3=\036\301\303c;\301p+\324At\'!\301\027\333;\301\t\307\327A\005\323#\3016\242;\301\265{\333A\2114&\301\247\256:\301L<\337A\300@(\301h\3718\301\\\372\342A\320\354)\301\211\1776\301u\246\346A\260.+\301\272B3\301\2220\352A~\375+\301\245I/\301\211\210\355A\350Q,\301\023\240*\301\230\236\360A\206&,\301\325V%\301\356c\363A\'x+\301c\203\037\301<\313\365A\024F*\3013?\031\3014\311\367A0\222(\301\331\246\022\301\364T\371A\016a&\301\363\330\013\301Uh\372A\330\271#\301\370\364\004\301\026\000\373A(\246 \301\3723\374\300\333\033\373A\2751\035\301\"\313\356\300\016\276\372A\037j\031\301l\345\341\300\225\353\371A.^\025\301#\262\325\300z\253\370A\254\035\021\301\301X\312\300t\006\367A\276\270\014\301L\370\277\300n\006\365A{?\010\301K\247\266\300\027\266\362A\177\301\003\301\032t\256\300l \360A\033\233\376\300\244e\247\300]P\355A\217\342\365\300^|\241\300\201P\352A\361q\355\300d\263\234\300\333*\347A\343^\345\300\244\001\231\300\266\350\343A\366\273\335\300\007[\226\300\220\222\340A\253\230\326\300~\261\224\300\0210\335A\215\001\320\300\365\365\223\300\026\310\331Ad\000\312\300\027\031\224\300\266`\326Av\234\304\300\361\013\225\300]\377\322A\317\332\277\300q\300\226\300\334\250\317A\223\276\273\300\266)\231\300\202a\314AII\270\300L<\234\3004-\311A0{\265\300E\356\237\300\201\017\306A\177S\263\300A7\244\300\273\013\303A\254\320\261\300`\020\251\300\004%\300A\244\360\260\300,t\256\300c^\275A\377\260\260\300l^\264\300\324\272\272A#\017\261\300\373\313\272\300Q=\270Al\010\262\300\221\272\301\300\346\350\265A=\232\263\300\206(\311\300\266\300\263A\021\302\265\300\222\024\321\300\004\310\261A\204}\270\300\206}\331\300@\002\260AQ\312\273\300\000b\342\300\013s\256AI\246\277\300\032\300\353\300=\036\255AD\017\304\300\017\225\365\300\346\007\254A\014\003\311\300\335\334\377\300T4\253A:\177\316\300\357H\005\301\017\250\252A\030\201\324\300+\326\n\301\320g\252Ak\005\333\300\377\220\020\301\200x\252AF\010\342\300\301r\026\301\"\337\252A\314\204\351\300\001s\034\301\300\240\253A\353t\361\300E\207\"\301P\302\254A\025\321\371\300\313\242(\301\212H\256A\367G\001\301K\266.\301\2757\260A\000\323\005\301\310\2574\301\221\223\262A\255\202\n\301oz:\301\300^\265A\247N\017\301\214\376?\301\307\232\270A\013-\024\301\246!E\301\205G\274AM\022\031\301\273\306I\301\332b\300A%\361\035\301\271\316M\301:\350\304A\201\272\"\301+\031Q\301J\320\311A\222]\'\3010\205S\301\201\020\317A\356\307+\301\266\362T\301\335\232\324A\317\345/\301\363CU\301\274]\332Al\2423\301\033_T\301\336C\340A~\3506\30120R\301\2424\346A\335\2429\301\346\252N\301\203\024\354AD\275;\301:\314I\301\336\305\361A)%=\301\343\233C\301\375)\367A\242\312=\301\030-<\301Y\"\374AH\241=\301\256\2363\301\005I\000B\005\241<\301m\032*\301\232/\002B\303\306:\301\202\323\037\3016\272\003B\326\0248\3014\004\025\301\351\340\004B,